{
  "\u0000": 0,
  "\u0001": 1,
  "\u0002": 2,
  "\u0003": 3,
  "\u0004": 4,
  "\u0005": 5,
  "\u0006": 6,
  "\u0007": 7,
  "\b": 8,
  "\t": 9,
  "\n": 10,
  "\u000b": 11,
  "\f": 12,
  "\r": 13,
  "\u000e": 14,
  "\u000f": 15,
  "\u0010": 16,
  "\u0011": 17,
  "\u0012": 18,
  "\u0013": 19,
  "\u0014": 20,
  "\u0015": 21,
  "\u0016": 22,
  "\u0017": 23,
  "\u0018": 24,
  "\u0019": 25,
  "\u001a": 26,
  "\u001b": 27,
  "\u001c": 28,
  "\u001d": 29,
  "\u001e": 30,
  "\u001f": 31,
  " ": 32,
  "!": 33,
  "\"": 34,
  "#": 35,
  "$": 36,
  "%": 37,
  "&": 38,
  "'": 39,
  "(": 40,
  ")": 41,
  "*": 42,
  "+": 43,
  ",": 44,
  "-": 45,
  ".": 46,
  "/": 47,
  "0": 48,
  "1": 49,
  "2": 50,
  "3": 51,
  "4": 52,
  "5": 53,
  "6": 54,
  "7": 55,
  "8": 56,
  "9": 57,
  ":": 58,
  ";": 59,
  "<": 60,
  "=": 61,
  ">": 62,
  "?": 63,
  "@": 64,
  "A": 65,
  "B": 66,
  "C": 67,
  "D": 68,
  "E": 69,
  "F": 70,
  "G": 71,
  "H": 72,
  "I": 73,
  "J": 74,
  "K": 75,
  "L": 76,
  "M": 77,
  "N": 78,
  "O": 79,
  "P": 80,
  "Q": 81,
  "R": 82,
  "S": 83,
  "T": 84,
  "U": 85,
  "V": 86,
  "W": 87,
  "X": 88,
  "Y": 89,
  "Z": 90,
  "[": 91,
  "\\": 92,
  "]": 93,
  "^": 94,
  "_": 95,
  "`": 96,
  "a": 97,
  "b": 98,
  "c": 99,
  "d": 100,
  "e": 101,
  "f": 102,
  "g": 103,
  "h": 104,
  "i": 105,
  "j": 106,
  "k": 107,
  "l": 108,
  "m": 109,
  "n": 110,
  "o": 111,
  "p": 112,
  "q": 113,
  "r": 114,
  "s": 115,
  "t": 116,
  "u": 117,
  "v": 118,
  "w": 119,
  "x": 120,
  "y": 121,
  "z": 122,
  "{": 123,
  "|": 124,
  "}": 125,
  "~": 126,
  "\u007f": 127,
  "\\u0080": 128,
  "\\u0081": 129,
  "\\u0082": 130,
  "\\u0083": 131,
  "\\u0084": 132,
  "\\u0085": 133,
  "\\u0086": 134,
  "\\u0087": 135,
  "\\u0088": 136,
  "\\u0089": 137,
  "\\u008a": 138,
  "\\u008b": 139,
  "\\u008c": 140,
  "\\u008d": 141,
  "\\u008e": 142,
  "\\u008f": 143,
  "\\u0090": 144,
  "\\u0091": 145,
  "\\u0092": 146,
  "\\u0093": 147,
  "\\u0094": 148,
  "\\u0095": 149,
  "\\u0096": 150,
  "\\u0097": 151,
  "\\u0098": 152,
  "\\u0099": 153,
  "\\u009a": 154,
  "\\u009b": 155,
  "\\u009c": 156,
  "\\u009d": 157,
  "\\u009e": 158,
  "\\u009f": 159,
  "\\u00a0": 160,
  "\\u00a1": 161,
  "\\u00a2": 162,
  "\\u00a3": 163,
  "\\u00a4": 164,
  "\\u00a5": 165,
  "\\u00a6": 166,
  "\\u00a7": 167,
  "\\u00a8": 168,
  "\\u00a9": 169,
  "\\u00aa": 170,
  "\\u00ab": 171,
  "\\u00ac": 172,
  "\\u00ad": 173,
  "\\u00ae": 174,
  "\\u00af": 175,
  "\\u00b0": 176,
  "\\u00b1": 177,
  "\\u00b2": 178,
  "\\u00b3": 179,
  "\\u00b4": 180,
  "\\u00b5": 181,
  "\\u00b6": 182,
  "\\u00b7": 183,
  "\\u00b8": 184,
  "\\u00b9": 185,
  "\\u00ba": 186,
  "\\u00bb": 187,
  "\\u00bc": 188,
  "\\u00bd": 189,
  "\\u00be": 190,
  "\\u00bf": 191,
  "\\u00c0": 192,
  "\\u00c1": 193,
  "\\u00c2": 194,
  "\\u00c3": 195,
  "\\u00c4": 196,
  "\\u00c5": 197,
  "\\u00c6": 198,
  "\\u00c7": 199,
  "\\u00c8": 200,
  "\\u00c9": 201,
  "\\u00ca": 202,
  "\\u00cb": 203,
  "\\u00cc": 204,
  "\\u00cd": 205,
  "\\u00ce": 206,
  "\\u00cf": 207,
  "\\u00d0": 208,
  "\\u00d1": 209,
  "\\u00d2": 210,
  "\\u00d3": 211,
  "\\u00d4": 212,
  "\\u00d5": 213,
  "\\u00d6": 214,
  "\\u00d7": 215,
  "\\u00d8": 216,
  "\\u00d9": 217,
  "\\u00da": 218,
  "\\u00db": 219,
  "\\u00dc": 220,
  "\\u00dd": 221,
  "\\u00de": 222,
  "\\u00df": 223,
  "\\u00e0": 224,
  "\\u00e1": 225,
  "\\u00e2": 226,
  "\\u00e3": 227,
  "\\u00e4": 228,
  "\\u00e5": 229,
  "\\u00e6": 230,
  "\\u00e7": 231,
  "\\u00e8": 232,
  "\\u00e9": 233,
  "\\u00ea": 234,
  "\\u00eb": 235,
  "\\u00ec": 236,
  "\\u00ed": 237,
  "\\u00ee": 238,
  "\\u00ef": 239,
  "\\u00f0": 240,
  "\\u00f1": 241,
  "\\u00f2": 242,
  "\\u00f3": 243,
  "\\u00f4": 244,
  "\\u00f5": 245,
  "\\u00f6": 246,
  "\\u00f7": 247,
  "\\u00f8": 248,
  "\\u00f9": 249,
  "\\u00fa": 250,
  "\\u00fb": 251,
  "\\u00fc": 252,
  "\\u00fd": 253,
  "\\u00fe": 254,
  "\\u00ff": 255,
  " t": 256,
  " a": 257,
  "he": 258,
  "in": 259,
  "re": 260,
  " the": 261,
  "on": 262,
  "er": 263,
  " s": 264,
  " w": 265,
  "at": 266,
  " o": 267,
  "en": 268,
  " c": 269,
  "it": 270,
  "is": 271,
  "an": 272,
  "or": 273,
  " b": 274,
  "es": 275,
  "ed": 276,
  " f": 277,
  "ing": 278,
  " p": 279,
  "ou": 280,
  " an": 281,
  "al": 282,
  " to": 283,
  "ar": 284,
  " m": 285,
  " in": 286,
  " of": 287,
  " h": 288,
  " d": 289,
  "\\u00e2\\u0080": 290,
  "as": 291,
  "ic": 292,
  " and": 293,
  " th": 294,
  "le": 295,
  "om": 296,
  "ion": 297,
  "ll": 298,
  "ent": 299,
  " n": 300,
  " l": 301,
  " re": 302,
  "st": 303,
  "ve": 304,
  "ly": 305,
  " e": 306,
  "ro": 307,
  " be": 308,
  " g": 309,
  "id": 310,
  "ut": 311,
  "ac": 312,
  "ot": 313,
  " T": 314,
  " I": 315,
  " that": 316,
  " on": 317,
  "ay": 318,
  " S": 319,
  " is": 320,
  "et": 321,
  "im": 322,
  "am": 323,
  "ad": 324,
  "ow": 325,
  "se": 326,
  "ig": 327,
  " for": 328,
  "\u2019": 329,
  " A": 330,
  "ver": 331,
  "ur": 332,
  "ct": 333,
  "ld": 334,
  " C": 335,
  " u": 336,
  " st": 337,
  " y": 338,
  " it": 339,
  " he": 340,
  "ir": 341,
  "ation": 342,
  "ith": 343,
  " wh": 344,
  " M": 345,
  "ce": 346,
  "ter": 347,
  "ol": 348,
  " we": 349,
  "il": 350,
  " with": 351,
  " as": 352,
  " B": 353,
  "ch": 354,
  "ill": 355,
  "nd": 356,
  " P": 357,
  " was": 358,
  "ers": 359,
  " you": 360,
  "ke": 361,
  "\\u0020\\u00e2\\u0080": 362,
  " con": 363,
  " de": 364,
  " r": 365,
  "her": 366,
  "if": 367,
  "ate": 368,
  "ag": 369,
  " at": 370,
  " ha": 371,
  " W": 372,
  " se": 373,
  " H": 374,
  "ore": 375,
  " pro": 376,
  "ul": 377,
  "pp": 378,
  "ment": 379,
  "ri": 380,
  " are": 381,
  " D": 382,
  " 1": 383,
  "est": 384,
  "us": 385,
  "ist": 386,
  " com": 387,
  "and": 388,
  " R": 389,
  "op": 390,
  "ain": 391,
  " The": 392,
  " 2": 393,
  "igh": 394,
  "rom": 395,
  " (": 396,
  "ort": 397,
  "od": 398,
  " ne": 399,
  " F": 400,
  "un": 401,
  "um": 402,
  " ex": 403,
  "res": 404,
  "ab": 405,
  "\u201d": 406,
  " not": 407,
  " N": 408,
  " v": 409,
  "ess": 410,
  " have": 411,
  "ity": 412,
  "em": 413,
  "ould": 414,
  " or": 415,
  "th": 416,
  " by": 417,
  "os": 418,
  "ant": 419,
  " G": 420,
  "ive": 421,
  " from": 422,
  " al": 423,
  "el": 424,
  "'s": 425,
  "oc": 426,
  "art": 427,
  " su": 428,
  " L": 429,
  " sh": 430,
  " this": 431,
  "nt": 432,
  "qu": 433,
  "ight": 434,
  "pe": 435,
  "ust": 436,
  " le": 437,
  "ies": 438,
  " E": 439,
  "end": 440,
  " ch": 441,
  " sa": 442,
  "out": 443,
  " ab": 444,
  "The": 445,
  "all": 446,
  "ie": 447,
  "ack": 448,
  "red": 449,
  "00": 450,
  " \u201c": 451,
  " has": 452,
  "ally": 453,
  " J": 454,
  " pl": 455,
  " go": 456,
  "ard": 457,
  "iv": 458,
  " his": 459,
  "ome": 460,
  "ap": 461,
  "ost": 462,
  "gh": 463,
  "ear": 464,
  " O": 465,
  " tr": 466,
  "our": 467,
  "ast": 468,
  " j": 469,
  "ak": 470,
  "ud": 471,
  " do": 472,
  " they": 473,
  " but": 474,
  " wor": 475,
  "rou": 476,
  " can": 477,
  "ge": 478,
  " will": 479,
  " said": 480,
  " whe": 481,
  " U": 482,
  " k": 483,
  "ich": 484,
  " all": 485,
  "ok": 486,
  " \"": 487,
  "ide": 488,
  " who": 489,
  " int": 490,
  "ame": 491,
  "ans": 492,
  "ther": 493,
  "ial": 494,
  " out": 495,
  "ff": 496,
  " their": 497,
  "ong": 498,
  "ect": 499,
  "ice": 500,
  "pl": 501,
  "ure": 502,
  "pt": 503,
  "one": 504,
  " more": 505,
  "age": 506,
  "ions": 507,
  "act": 508,
  "ike": 509,
  " me": 510,
  " up": 511,
  "ous": 512,
  "ine": 513,
  " ad": 514,
  " about": 515,
  "ated": 516,
  "ra": 517,
  "ber": 518,
  " one": 519,
  " were": 520,
  " so": 521,
  " us": 522,
  "ime": 523,
  "og": 524,
  " K": 525,
  "ep": 526,
  "ia": 527,
  " had": 528,
  "are": 529,
  "ub": 530,
  "cc": 531,
  " would": 532,
  " cl": 533,
  " 20": 534,
  " im": 535,
  " which": 536,
  "ind": 537,
  "ake": 538,
  "ue": 539,
  " cont": 540,
  "iz": 541,
  "very": 542,
  " ag": 543,
  " te": 544,
  " off": 545,
  " comp": 546,
  " un": 547,
  " been": 548,
  " St": 549,
  "so": 550,
  " en": 551,
  "per": 552,
  "ign": 553,
  "au": 554,
  " Th": 555,
  "ary": 556,
  "ace": 557,
  " year": 558,
  "ip": 559,
  "ew": 560,
  " like": 561,
  "ere": 562,
  "ven": 563,
  "ook": 564,
  " inc": 565,
  "ays": 566,
  " man": 567,
  " pe": 568,
  "ry": 569,
  "ose": 570,
  " res": 571,
  "able": 572,
  "ite": 573,
  " per": 574,
  "ass": 575,
  "ord": 576,
  " sp": 577,
  "ire": 578,
  " In": 579,
  " other": 580,
  "mer": 581,
  " some": 582,
  "ile": 583,
  "ib": 584,
  "ence": 585,
  "ople": 586,
  " 201": 587,
  "ks": 588,
  "ations": 589,
  " over": 590,
  "ical": 591,
  " there": 592,
  "ress": 593,
  " dis": 594,
  "ult": 595,
  "int": 596,
  " new": 597,
  "own": 598,
  " also": 599,
  " than": 600,
  " ar": 601,
  " bec": 602,
  "ru": 603,
  " them": 604,
  "ance": 605,
  "ount": 606,
  "ough": 607,
  " app": 608,
  "port": 609,
  "ail": 610,
  " part": 611,
  " your": 612,
  " when": 613,
  "ree": 614,
  " what": 615,
  "orm": 616,
  "ond": 617,
  " people": 618,
  "fter": 619,
  " sc": 620,
  " Ch": 621,
  "av": 622,
  "ase": 623,
  " qu": 624,
  " any": 625,
  " just": 626,
  " its": 627,
  " Y": 628,
  "ach": 629,
  " time": 630,
  " It": 631,
  " kn": 632,
  " her": 633,
  " 3": 634,
  "lic": 635,
  "ens": 636,
  " rec": 637,
  "reat": 638,
  " my": 639,
  " get": 640,
  " if": 641,
  " V": 642,
  "ian": 643,
  ".\u201d": 644,
  " into": 645,
  " work": 646,
  "ound": 647,
  " tw": 648,
  "irst": 649,
  "vel": 650,
  "ction": 651,
  " no": 652,
  "du": 653,
  "ings": 654,
  "ory": 655,
  "ick": 656,
  "ors": 657,
  " our": 658,
  "ident": 659,
  "ition": 660,
  "ob": 661,
  " -": 662,
  " pre": 663,
  "ove": 664,
  " play": 665,
  "ang": 666,
  "ink": 667,
  "ause": 668,
  "wn": 669,
  "te": 670,
  "amp": 671,
  "ade": 672,
  "hing": 673,
  "ates": 674,
  "ark": 675,
  " ro": 676,
  " pol": 677,
  " she": 678,
  "vers": 679,
  " co": 680,
  " after": 681,
  ",\u201d": 682,
  "ne": 683,
  " first": 684,
  " could": 685,
  " how": 686,
  " He": 687,
  " 19": 688,
  "ious": 689,
  "nder": 690,
  "ild": 691,
  " acc": 692,
  " him": 693,
  "aw": 694,
  "'t": 695,
  "ons": 696,
  " po": 697,
  " only": 698,
  " fe": 699,
  " att": 700,
  "ict": 701,
  "hed": 702,
  " pr": 703,
  " two": 704,
  "rit": 705,
  "ov": 706,
  "ish": 707,
  " comm": 708,
  "\u201c": 709,
  "form": 710,
  " spe": 711,
  " act": 712,
  "we": 713,
  "erv": 714,
  " bl": 715,
  "ft": 716,
  " bet": 717,
  " dec": 718,
  ".\"": 719,
  "ning": 720,
  " back": 721,
  " most": 722,
  "ces": 723,
  "ood": 724,
  "ck": 725,
  " \u2013": 726,
  " am": 727,
  "oy": 728,
  " did": 729,
  "rough": 730,
  "iff": 731,
  "ater": 732,
  "round": 733,
  " again": 734,
  " 4": 735,
  "ual": 736,
  "day": 737,
  "ise": 738,
  " under": 739,
  " want": 740,
  " des": 741,
  "ull": 742,
  "sel": 743,
  " cons": 744,
  " \u2014": 745,
  " because": 746,
  "..": 747,
  " now": 748,
  "lud": 749,
  "ents": 750,
  " years": 751,
  "man": 752,
  "ublic": 753,
  "tern": 754,
  "ec": 755,
  " need": 756,
  " even": 757,
  " $": 758,
  "iss": 759,
  " inv": 760,
  " know": 761,
  " We": 762,
  " see": 763,
  "ments": 764,
  " add": 765,
  "ced": 766,
  ",\"": 767,
  "ting": 768,
  "old": 769,
  " ind": 770,
  " sec": 771,
  "fore": 772,
  "uch": 773,
  " every": 774,
  "urn": 775,
  " 5": 776,
  " supp": 777,
  " make": 778,
  "pect": 779,
  " Un": 780,
  " em": 781,
  " these": 782,
  "ock": 783,
  "oll": 784,
  " where": 785,
  "ject": 786,
  "In": 787,
  "ational": 788,
  "vern": 789,
  "xt": 790,
  " bu": 791,
  " look": 792,
  "Th": 793,
  " And": 794,
  "oss": 795,
  " don": 796,
  " ev": 797,
  "ump": 798,
  "ating": 799,
  " way": 800,
  " being": 801,
  " rem": 802,
  " right": 803,
  "ily": 804,
  "ng": 805,
  " may": 806,
  "row": 807,
  "lect": 808,
  "iew": 809,
  " then": 810,
  " many": 811,
  " [": 812,
  " diff": 813,
  "ason": 814,
  " def": 815,
  " call": 816,
  " rel": 817,
  " But": 818,
  " Tr": 819,
  "ont": 820,
  "les": 821,
  "ied": 822,
  "ased": 823,
  " includ": 824,
  " think": 825,
  "aking": 826,
  " reg": 827,
  ").": 828,
  "meric": 829,
  " imp": 830,
  " through": 831,
  "ath": 832,
  "ited": 833,
  "rib": 834,
  " sy": 835,
  " should": 836,
  " pres": 837,
  " say": 838,
  "ell": 839,
  " fl": 840,
  "uring": 841,
  " last": 842,
  " those": 843,
  "ower": 844,
  " very": 845,
  "ty": 846,
  "other": 847,
  " much": 848,
  "ities": 849,
  "ific": 850,
  " state": 851,
  " This": 852,
  " show": 853,
  "ative": 854,
  "tle": 855,
  "hen": 856,
  " br": 857,
  "ss": 858,
  "arg": 859,
  " well": 860,
  "oth": 861,
  " ph": 862,
  " Wh": 863,
  " count": 864,
  "als": 865,
  "und": 866,
  "--": 867,
  " does": 868,
  " 200": 869,
  " down": 870,
  " own": 871,
  "arly": 872,
  " end": 873,
  " ass": 874,
  " bel": 875,
  " use": 876,
  "ics": 877,
  "ange": 878,
  "ts": 879,
  " long": 880,
  " Americ": 881,
  "ters": 882,
  "ince": 883,
  " before": 884,
  "omet": 885,
  "gr": 886,
  " mon": 887,
  "ward": 888,
  " govern": 889,
  " start": 890,
  " report": 891,
  "ible": 892,
  "up": 893,
  " ke": 894,
  "ues": 895,
  " New": 896,
  " fin": 897,
  " team": 898,
  "ble": 899,
  " made": 900,
  "ife": 901,
  "olog": 902,
  "ener": 903,
  "),": 904,
  " such": 905,
  "ren": 906,
  "com": 907,
  "oun": 908,
  "erson": 909,
  "ek": 910,
  "\u2014": 911,
  "ix": 912,
  " sm": 913,
  "lp": 914,
  "ility": 915,
  " going": 916,
  "ism": 917,
  "ful": 918,
  " world": 919,
  "ually": 920,
  " stud": 921,
  "ists": 922,
  " good": 923,
  " ac": 924,
  "tain": 925,
  "It": 926,
  " sub": 927,
  " eff": 928,
  " sur": 929,
  " against": 930,
  "its": 931,
  " game": 932,
  " set": 933,
  "ork": 934,
  " 6": 935,
  " gu": 936,
  " point": 937,
  " ent": 938,
  "ys": 939,
  "000": 940,
  "gan": 941,
  "ars": 942,
  "li": 943,
  "stem": 944,
  " prov": 945,
  " still": 946,
  "roup": 947,
  " while": 948,
  "illion": 949,
  " help": 950,
  " lead": 951,
  " min": 952,
  "ween": 953,
  "ef": 954,
  "ax": 955,
  "ank": 956,
  "alk": 957,
  "imes": 958,
  " says": 959,
  " ob": 960,
  "ms": 961,
  "cy": 962,
  " produ": 963,
  " gr": 964,
  " inter": 965,
  " inst": 966,
  " str": 967,
  "cess": 968,
  " sim": 969,
  "io": 970,
  "self": 971,
  " conf": 972,
  " col": 973,
  " take": 974,
  "ures": 975,
  "arch": 976,
  " same": 977,
  " though": 978,
  " between": 979,
  " offic": 980,
  "ollow": 981,
  "ever": 982,
  " cr": 983,
  " differe": 984,
  "ool": 985,
  "uss": 986,
  "ution": 987,
  "land": 988,
  " disc": 989,
  "air": 990,
  " op": 991,
  "ah": 992,
  " ed": 993,
  " high": 994,
  "read": 995,
  " law": 996,
  " num": 997,
  " sign": 998,
  "way": 999,
  " government": 1000,
  "gg": 1001,
  " Re": 1002,
  "led": 1003,
  "ner": 1004,
  "hip": 1005,
  "atch": 1006,
  "ames": 1007,
  "hes": 1008,
  "any": 1009,
  " ter": 1010,
  " somet": 1011,
  "cent": 1012,
  "velop": 1013,
  "ted": 1014,
  "We": 1015,
  " ref": 1016,
  " trans": 1017,
  "ten": 1018,
  " ins": 1019,
  " run": 1020,
  " ser": 1021,
  " found": 1022,
  " three": 1023,
  "ives": 1024,
  "ave": 1025,
  " mem": 1026,
  " around": 1027,
  " here": 1028,
  "ather": 1029,
  " med": 1030,
  " real": 1031,
  " used": 1032,
  "ouse": 1033,
  " 10": 1034,
  "ved": 1035,
  " exp": 1036,
  "az": 1037,
  " Ar": 1038,
  "cept": 1039,
  "oot": 1040,
  " system": 1041,
  " You": 1042,
  "ci": 1043,
  " really": 1044,
  " mod": 1045,
  "ving": 1046,
  "con": 1047,
  "cer": 1048,
  " group": 1049,
  " support": 1050,
  " 7": 1051,
  " cour": 1052,
  "ets": 1053,
  "ale": 1054,
  "ins": 1055,
  " ret": 1056,
  " hand": 1057,
  " public": 1058,
  " spec": 1059,
  "pr": 1060,
  " Le": 1061,
  "ying": 1062,
  " great": 1063,
  " car": 1064,
  "ense": 1065,
  " ext": 1066,
  ".[": 1067,
  "ton": 1068,
  "irect": 1069,
  " cur": 1070,
  " fam": 1071,
  " Com": 1072,
  "alth": 1073,
  " happ": 1074,
  " fact": 1075,
  "ph": 1076,
  " exper": 1077,
  " Trump": 1078,
  " They": 1079,
  " fr": 1080,
  " Is": 1081,
  " wom": 1082,
  " cap": 1083,
  " both": 1084,
  " day": 1085,
  " find": 1086,
  " Al": 1087,
  "ular": 1088,
  " read": 1089,
  "ines": 1090,
  "oh": 1091,
  " det": 1092,
  "ices": 1093,
  " lit": 1094,
  " sl": 1095,
  " rep": 1096,
  "uth": 1097,
  "ered": 1098,
  " during": 1099,
  " Sh": 1100,
  " As": 1101,
  " serv": 1102,
  " 0": 1103,
  " month": 1104,
  "min": 1105,
  "the": 1106,
  "ision": 1107,
  " cre": 1108,
  " develop": 1109,
  " big": 1110,
  " 8": 1111,
  " person": 1112,
  "akes": 1113,
  " follow": 1114,
  " Cl": 1115,
  " iss": 1116,
  "ex": 1117,
  " told": 1118,
  " since": 1119,
  "ared": 1120,
  "med": 1121,
  "ically": 1122,
  " week": 1123,
  "ages": 1124,
  "ivers": 1125,
  " war": 1126,
  " few": 1127,
  "orth": 1128,
  "ording": 1129,
  " cent": 1130,
  " leg": 1131,
  "aj": 1132,
  "get": 1133,
  " polit": 1134,
  "ves": 1135,
  "ash": 1136,
  " expl": 1137,
  " lot": 1138,
  "ric": 1139,
  " Se": 1140,
  " belie": 1141,
  " gener": 1142,
  " too": 1143,
  " 9": 1144,
  "der": 1145,
  "rent": 1146,
  "ata": 1147,
  " opp": 1148,
  "Wh": 1149,
  " requ": 1150,
  " contin": 1151,
  " prot": 1152,
  "bers": 1153,
  "iet": 1154,
  "anc": 1155,
  " fil": 1156,
  "ention": 1157,
  " cle": 1158,
  "ness": 1159,
  " resp": 1160,
  " put": 1161,
  "ized": 1162,
  " If": 1163,
  " another": 1164,
  " inf": 1165,
  "20": 1166,
  "chool": 1167,
  " something": 1168,
  " De": 1169,
  " different": 1170,
  " cor": 1171,
  " loc": 1172,
  "ute": 1173,
  " invest": 1174,
  " soc": 1175,
  " power": 1176,
  " che": 1177,
  "uc": 1178,
  " '": 1179,
  " pass": 1180,
  " commun": 1181,
  " life": 1182,
  " Fr": 1183,
  " plan": 1184,
  "ody": 1185,
  " rele": 1186,
  "ience": 1187,
  " head": 1188,
  "ned": 1189,
  " things": 1190,
  " far": 1191,
  " art": 1192,
  " poss": 1193,
  " met": 1194,
  "thing": 1195,
  "ox": 1196,
  "erest": 1197,
  " camp": 1198,
  "ross": 1199,
  " vot": 1200,
  "arge": 1201,
  "ier": 1202,
  "This": 1203,
  "view": 1204,
  " child": 1205,
  "ants": 1206,
  " .": 1207,
  " ask": 1208,
  " might": 1209,
  " each": 1210,
  "ize": 1211,
  "iness": 1212,
  " dep": 1213,
  " never": 1214,
  " next": 1215,
  "ik": 1216,
  "ield": 1217,
  " second": 1218,
  "tt": 1219,
  " mark": 1220,
  " bus": 1221,
  " quest": 1222,
  " adv": 1223,
  " An": 1224,
  " dem": 1225,
  " For": 1226,
  " come": 1227,
  " got": 1228,
  " \u2018": 1229,
  " open": 1230,
  " best": 1231,
  "ient": 1232,
  "ital": 1233,
  " allow": 1234,
  " That": 1235,
  "rat": 1236,
  " seem": 1237,
  " post": 1238,
  "ple": 1239,
  "nce": 1240,
  " feel": 1241,
  " Pro": 1242,
  " US": 1243,
  "ug": 1244,
  " pri": 1245,
  "gram": 1246,
  " percent": 1247,
  "cl": 1248,
  " home": 1249,
  " dist": 1250,
  " direct": 1251,
  "ired": 1252,
  " incre": 1253,
  " contro": 1254,
  " Rep": 1255,
  "son": 1256,
  "orn": 1257,
  "less": 1258,
  "osed": 1259,
  " result": 1260,
  " hard": 1261,
  " care": 1262,
  "ately": 1263,
  " million": 1264,
  "chn": 1265,
  " comple": 1266,
  " place": 1267,
  " without": 1268,
  " inform": 1269,
  " including": 1270,
  " import": 1271,
  " av": 1272,
  "conom": 1273,
  " hum": 1274,
  " ide": 1275,
  " proble": 1276,
  " build": 1277,
  " top": 1278,
  "ama": 1279,
  " country": 1280,
  " number": 1281,
  "gy": 1282,
  "oney": 1283,
  "aim": 1284,
  " Bl": 1285,
  "ret": 1286,
  "ral": 1287,
  "ably": 1288,
  "uro": 1289,
  " stand": 1290,
  " gl": 1291,
  " el": 1292,
  "riend": 1293,
  " four": 1294,
  "ished": 1295,
  "ways": 1296,
  " partic": 1297,
  " better": 1298,
  "co": 1299,
  " tri": 1300,
  "But": 1301,
  " recent": 1302,
  " mov": 1303,
  " interest": 1304,
  " let": 1305,
  "ration": 1306,
  " season": 1307,
  " less": 1308,
  "ead": 1309,
  " turn": 1310,
  " little": 1311,
  " mil": 1312,
  " beh": 1313,
  " appro": 1314,
  "ract": 1315,
  "line": 1316,
  " bro": 1317,
  "ling": 1318,
  "ised": 1319,
  " called": 1320,
  "app": 1321,
  "10": 1322,
  " case": 1323,
  " dr": 1324,
  " Ind": 1325,
  " left": 1326,
  " rest": 1327,
  " pop": 1328,
  " ann": 1329,
  " Z": 1330,
  "ency": 1331,
  "ode": 1332,
  " move": 1333,
  "ina": 1334,
  " attack": 1335,
  " There": 1336,
  " keep": 1337,
  " full": 1338,
  "ering": 1339,
  " didn": 1340,
  "be": 1341,
  " main": 1342,
  " fun": 1343,
  "ajor": 1344,
  "__": 1345,
  " effect": 1346,
  "inal": 1347,
  "me": 1348,
  "leg": 1349,
  " prev": 1350,
  " program": 1351,
  " using": 1352,
  " test": 1353,
  " pay": 1354,
  "to": 1355,
  " ear": 1356,
  "ature": 1357,
  " val": 1358,
  " police": 1359,
  " writ": 1360,
  " form": 1361,
  " econom": 1362,
  " news": 1363,
  " data": 1364,
  " pos": 1365,
  " win": 1366,
  " American": 1367,
  " level": 1368,
  " sit": 1369,
  " char": 1370,
  "ains": 1371,
  "iving": 1372,
  "uck": 1373,
  "ready": 1374,
  "ined": 1375,
  " small": 1376,
  "He": 1377,
  " school": 1378,
  " list": 1379,
  "ology": 1380,
  "rap": 1381,
  "mit": 1382,
  "ided": 1383,
  "ploy": 1384,
  "'re": 1385,
  "ger": 1386,
  " eas": 1387,
  " process": 1388,
  "ird": 1389,
  " change": 1390,
  " women": 1391,
  " current": 1392,
  " rece": 1393,
  " prom": 1394,
  " hist": 1395,
  " dri": 1396,
  "reen": 1397,
  "ians": 1398,
  " president": 1399,
  " =": 1400,
  " company": 1401,
  " So": 1402,
  "used": 1403,
  " mat": 1404,
  "ruct": 1405,
  " already": 1406,
  "ohn": 1407,
  " United": 1408,
  "wit": 1409,
  " ty": 1410,
  " why": 1411,
  " bre": 1412,
  " unt": 1413,
  " money": 1414,
  " always": 1415,
  " later": 1416,
  " sol": 1417,
  " expect": 1418,
  " techn": 1419,
  " official": 1420,
  " business": 1421,
  " How": 1422,
  "ron": 1423,
  " Q": 1424,
  " Ob": 1425,
  "stand": 1426,
  "iversity": 1427,
  " book": 1428,
  " bo": 1429,
  " Ph": 1430,
  "aign": 1431,
  " thing": 1432,
  " project": 1433,
  " class": 1434,
  "ases": 1435,
  " job": 1436,
  " claim": 1437,
  " information": 1438,
  " organ": 1439,
  "aff": 1440,
  " talk": 1441,
  " She": 1442,
  "ards": 1443,
  " Be": 1444,
  " design": 1445,
  " story": 1446,
  " chang": 1447,
  " major": 1448,
  " able": 1449,
  " --": 1450,
  " prof": 1451,
  "lection": 1452,
  "...": 1453,
  "iven": 1454,
  " health": 1455,
  " rese": 1456,
  "ertain": 1457,
  " vis": 1458,
  " past": 1459,
  "urs": 1460,
  " free": 1461,
  "outh": 1462,
  "here": 1463,
  " Ad": 1464,
  " oper": 1465,
  "ption": 1466,
  " away": 1467,
  "ior": 1468,
  " Can": 1469,
  " must": 1470,
  " city": 1471,
  "ample": 1472,
  "rist": 1473,
  "sc": 1474,
  "ural": 1475,
  " happen": 1476,
  "uthor": 1477,
  " 18": 1478,
  " important": 1479,
  "acy": 1480,
  "urity": 1481,
  " kill": 1482,
  " sk": 1483,
  "ured": 1484,
  " est": 1485,
  " old": 1486,
  " pat": 1487,
  "ury": 1488,
  "ending": 1489,
  " doesn": 1490,
  "ission": 1491,
  " least": 1492,
  " grow": 1493,
  " edit": 1494,
  "ained": 1495,
  " var": 1496,
  "St": 1497,
  " cost": 1498,
  "ney": 1499,
  " Go": 1500,
  "ider": 1501,
  "ides": 1502,
  " days": 1503,
  "els": 1504,
  " tell": 1505,
  " stre": 1506,
  " hop": 1507,
  " 12": 1508,
  " campaign": 1509,
  "side": 1510,
  " men": 1511,
  " came": 1512,
  " aff": 1513,
  " const": 1514,
  "resident": 1515,
  " enough": 1516,
  " view": 1517,
  " kind": 1518,
  " Mar": 1519,
  "ccess": 1520,
  "oad": 1521,
  " Sp": 1522,
  "ern": 1523,
  " making": 1524,
  " large": 1525,
  " record": 1526,
  "50": 1527,
  "ush": 1528,
  " friend": 1529,
  " family": 1530,
  " mar": 1531,
  "\u2026": 1532,
  "ley": 1533,
  " elect": 1534,
  " polic": 1535,
  "eral": 1536,
  " tax": 1537,
  "ising": 1538,
  "by": 1539,
  "pped": 1540,
  "ality": 1541,
  "ator": 1542,
  "ified": 1543,
  "As": 1544,
  "ived": 1545,
  "arent": 1546,
  "ror": 1547,
  " until": 1548,
  "ional": 1549,
  "----": 1550,
  " political": 1551,
  " vide": 1552,
  " deal": 1553,
  "ee": 1554,
  "ries": 1555,
  "alf": 1556,
  " ve": 1557,
  "augh": 1558,
  " working": 1559,
  " Republic": 1560,
  "ued": 1561,
  " took": 1562,
  " deb": 1563,
  "bs": 1564,
  "ister": 1565,
  "If": 1566,
  " line": 1567,
  " John": 1568,
  "aining": 1569,
  " air": 1570,
  " es": 1571,
  " intern": 1572,
  " fore": 1573,
  "iol": 1574,
  "ocrat": 1575,
  "ane": 1576,
  " become": 1577,
  " actually": 1578,
  "aps": 1579,
  "ony": 1580,
  " mean": 1581,
  "work": 1582,
  " fund": 1583,
  " Sc": 1584,
  "ware": 1585,
  "19": 1586,
  "ember": 1587,
  " Pl": 1588,
  " former": 1589,
  " often": 1590,
  "ott": 1591,
  " Euro": 1592,
  "ann": 1593,
  " won": 1594,
  " give": 1595,
  " according": 1596,
  "oint": 1597,
  " ever": 1598,
  "year": 1599,
  "eng": 1600,
  "most": 1601,
  "wh": 1602,
  "aring": 1603,
  " games": 1604,
  "ison": 1605,
  " human": 1606,
  " word": 1607,
  " bas": 1608,
  "ization": 1609,
  " return": 1610,
  " times": 1611,
  " order": 1612,
  " Dem": 1613,
  " Russ": 1614,
  " bit": 1615,
  " name": 1616,
  "11": 1617,
  "gin": 1618,
  " sever": 1619,
  " All": 1620,
  " dev": 1621,
  "icle": 1622,
  "uture": 1623,
  "for": 1624,
  "ither": 1625,
  "iqu": 1626,
  " par": 1627,
  " Mc": 1628,
  " 199": 1629,
  " Con": 1630,
  " wr": 1631,
  "raft": 1632,
  " sing": 1633,
  " perform": 1634,
  " Sy": 1635,
  "idd": 1636,
  " market": 1637,
  " fac": 1638,
  "There": 1639,
  " charac": 1640,
  " Or": 1641,
  " At": 1642,
  " May": 1643,
  " ra": 1644,
  " doing": 1645,
  "ER": 1646,
  " appear": 1647,
  "ched": 1648,
  " players": 1649,
  " la": 1650,
  " night": 1651,
  "aken": 1652,
  " lear": 1653,
  "mber": 1654,
  "rop": 1655,
  "ats": 1656,
  " today": 1657,
  " early": 1658,
  " 15": 1659,
  "//": 1660,
  " seen": 1661,
  " having": 1662,
  " pot": 1663,
  " children": 1664,
  " ,": 1665,
  " media": 1666,
  " event": 1667,
  " social": 1668,
  " crit": 1669,
  " President": 1670,
  " whether": 1671,
  " several": 1672,
  " control": 1673,
  "idence": 1674,
  " meet": 1675,
  " milit": 1676,
  "sh": 1677,
  " press": 1678,
  " went": 1679,
  "artment": 1680,
  "ene": 1681,
  " young": 1682,
  " five": 1683,
  "ories": 1684,
  " sure": 1685,
  " prop": 1686,
  "iously": 1687,
  " equ": 1688,
  " question": 1689,
  " occ": 1690,
  " likely": 1691,
  "vert": 1692,
  "une": 1693,
  " members": 1694,
  "br": 1695,
  "ands": 1696,
  " certain": 1697,
  " eng": 1698,
  "ium": 1699,
  " water": 1700,
  " York": 1701,
  " example": 1702,
  "ots": 1703,
  " side": 1704,
  " ant": 1705,
  " Col": 1706,
  " done": 1707,
  " arg": 1708,
  "enn": 1709,
  " vers": 1710,
  " invol": 1711,
  " Mr": 1712,
  " States": 1713,
  " Europe": 1714,
  "ended": 1715,
  " along": 1716,
  "let": 1717,
  " short": 1718,
  " success": 1719,
  "ential": 1720,
  " months": 1721,
  "ball": 1722,
  " hour": 1723,
  " 11": 1724,
  "iver": 1725,
  " sex": 1726,
  "ially": 1727,
  "And": 1728,
  "lf": 1729,
  "empt": 1730,
  " within": 1731,
  " desc": 1732,
  "imate": 1733,
  " fight": 1734,
  "ster": 1735,
  " course": 1736,
  "urch": 1737,
  "ubl": 1738,
  " among": 1739,
  "ague": 1740,
  " activ": 1741,
  "uff": 1742,
  " once": 1743,
  "\u2013": 1744,
  " future": 1745,
  " investig": 1746,
  "ulation": 1747,
  " Obama": 1748,
  "rew": 1749,
  " cho": 1750,
  " possible": 1751,
  "nect": 1752,
  " understand": 1753,
  "iting": 1754,
  " concer": 1755,
  "ones": 1756,
  " On": 1757,
  " ]": 1758,
  "ortun": 1759,
  " problem": 1760,
  " Br": 1761,
  " priv": 1762,
  " means": 1763,
  " viol": 1764,
  " author": 1765,
  " Car": 1766,
  " No": 1767,
  "itive": 1768,
  "ggest": 1769,
  " avail": 1770,
  "oci": 1771,
  "ourn": 1772,
  "my": 1773,
  " product": 1774,
  " known": 1775,
  " non": 1776,
  "ivid": 1777,
  " thought": 1778,
  " yet": 1779,
  " across": 1780,
  "gress": 1781,
  " local": 1782,
  "ald": 1783,
  " protect": 1784,
  "ler": 1785,
  " Te": 1786,
  " hold": 1787,
  " fail": 1788,
  " When": 1789,
  " State": 1790,
  " community": 1791,
  "inc": 1792,
  " reason": 1793,
  " orig": 1794,
  " suggest": 1795,
  " &": 1796,
  " makes": 1797,
  "12": 1798,
  "verage": 1799,
  "not": 1800,
  "back": 1801,
  "por": 1802,
  " 2016": 1803,
  " i": 1804,
  "book": 1805,
  " asked": 1806,
  "ederal": 1807,
  "orld": 1808,
  " reported": 1809,
  "You": 1810,
  "aged": 1811,
  "ensive": 1812,
  " given": 1813,
  " strong": 1814,
  " prob": 1815,
  " mus": 1816,
  " others": 1817,
  " believe": 1818,
  " video": 1819,
  "iber": 1820,
  " ben": 1821,
  " getting": 1822,
  "ances": 1823,
  " House": 1824,
  " announ": 1825,
  " light": 1826,
  " University": 1827,
  "ored": 1828,
  "ober": 1829,
  " 30": 1830,
  " Co": 1831,
  " ident": 1832,
  "itions": 1833,
  "iron": 1834,
  " cut": 1835,
  " sent": 1836,
  " lim": 1837,
  " ca": 1838,
  " Christ": 1839,
  "iety": 1840,
  "30": 1841,
  "urther": 1842,
  " sour": 1843,
  " creat": 1844,
  " cond": 1845,
  " X": 1846,
  "rest": 1847,
  "'ve": 1848,
  "ams": 1849,
  " net": 1850,
  "ashing": 1851,
  " bat": 1852,
  "ament": 1853,
  " national": 1854,
  " close": 1855,
  " saf": 1856,
  ".,": 1857,
  " started": 1858,
  " death": 1859,
  " available": 1860,
  "aster": 1861,
  "arm": 1862,
  " hig": 1863,
  "For": 1864,
  " issue": 1865,
  " based": 1866,
  " Democrat": 1867,
  "of": 1868,
  " indust": 1869,
  " Min": 1870,
  " following": 1871,
  " low": 1872,
  "resent": 1873,
  " account": 1874,
  " land": 1875,
  " Cent": 1876,
  "use": 1877,
  " love": 1878,
  " employ": 1879,
  " #": 1880,
  " 2015": 1881,
  " ago": 1882,
  " history": 1883,
  "selves": 1884,
  "orts": 1885,
  " mom": 1886,
  " party": 1887,
  "ability": 1888,
  " series": 1889,
  " comes": 1890,
  "eb": 1891,
  "uly": 1892,
  " trying": 1893,
  " Am": 1894,
  "utes": 1895,
  " almost": 1896,
  "gether": 1897,
  " together": 1898,
  "ument": 1899,
  "ination": 1900,
  "AT": 1901,
  " America": 1902,
  "pro": 1903,
  " idea": 1904,
  "ief": 1905,
  " access": 1906,
  " foc": 1907,
  "hers": 1908,
  "ilar": 1909,
  " Fl": 1910,
  "reed": 1911,
  "ails": 1912,
  " commit": 1913,
  "itional": 1914,
  " isn": 1915,
  " Sen": 1916,
  " clear": 1917,
  " 16": 1918,
  " One": 1919,
  " trad": 1920,
  "though": 1921,
  "ring": 1922,
  " What": 1923,
  " added": 1924,
  " pract": 1925,
  " impro": 1926,
  " experience": 1927,
  "erence": 1928,
  " film": 1929,
  " half": 1930,
  "15": 1931,
  "ustom": 1932,
  "ged": 1933,
  " hit": 1934,
  "af": 1935,
  " Bro": 1936,
  "witter": 1937,
  "rict": 1938,
  " anal": 1939,
  "ograp": 1940,
  "unch": 1941,
  " 2014": 1942,
  "inton": 1943,
  " rul": 1944,
  " looking": 1945,
  " live": 1946,
  "ividual": 1947,
  " six": 1948,
  " anything": 1949,
  " area": 1950,
  " complete": 1951,
  "erman": 1952,
  "minist": 1953,
  " miss": 1954,
  "rael": 1955,
  " Comm": 1956,
  " Ex": 1957,
  " fav": 1958,
  "ai": 1959,
  " ris": 1960,
  "nes": 1961,
  " present": 1962,
  "ote": 1963,
  "rug": 1964,
  " saying": 1965,
  "raw": 1966,
  " Canad": 1967,
  "aid": 1968,
  " vict": 1969,
  "IN": 1970,
  "cially": 1971,
  "uge": 1972,
  "ows": 1973,
  " bad": 1974,
  " taken": 1975,
  "ert": 1976,
  " entire": 1977,
  "oto": 1978,
  " Pr": 1979,
  "ators": 1980,
  "ev": 1981,
  " bill": 1982,
  " compet": 1983,
  " Eng": 1984,
  " mor": 1985,
  " behind": 1986,
  "ien": 1987,
  " To": 1988,
  " aut": 1989,
  " court": 1990,
  "'m": 1991,
  " military": 1992,
  " try": 1993,
  " tre": 1994,
  "play": 1995,
  " near": 1996,
  "osp": 1997,
  " z": 1998,
  " mult": 1999,
  "What": 2000,
  " face": 2001,
  " 14": 2002,
  "wards": 2003,
  " security": 2004,
  " er": 2005,
  " Pol": 2006,
  "sy": 2007,
  " proper": 2008,
  " discuss": 2009,
  " threat": 2010,
  " tot": 2011,
  " study": 2012,
  " single": 2013,
  " rather": 2014,
  " individual": 2015,
  " Af": 2016,
  " Brit": 2017,
  " War": 2018,
  "ttp": 2019,
  "\\u0020\\u00c2": 2020,
  " quick": 2021,
  " Don": 2022,
  "An": 2023,
  " mind": 2024,
  " Sec": 2025,
  "ales": 2026,
  "lement": 2027,
  "amed": 2028,
  " North": 2029,
  "atic": 2030,
  "aper": 2031,
  " publ": 2032,
  " policy": 2033,
  " mess": 2034,
  "ris": 2035,
  " wanted": 2036,
  "par": 2037,
  " black": 2038,
  " fall": 2039,
  "off": 2040,
  "irc": 2041,
  "**": 2042,
  " food": 2043,
  " sum": 2044,
  " someone": 2045,
  "lling": 2046,
  "ids": 2047,
  "On": 2048,
  " |": 2049,
  " cult": 2050,
  " special": 2051,
  " Man": 2052,
  " comb": 2053,
  " /": 2054,
  " key": 2055,
  " player": 2056,
  " Gr": 2057,
  " 13": 2058,
  " bring": 2059,
  " redu": 2060,
  " compan": 2061,
  " 17": 2062,
  "ply": 2063,
  " attempt": 2064,
  " Dep": 2065,
  " National": 2066,
  " taking": 2067,
  "When": 2068,
  " Bar": 2069,
  "ON": 2070,
  "ify": 2071,
  "olution": 2072,
  "viron": 2073,
  " foot": 2074,
  " :": 2075,
  " Cal": 2076,
  "://": 2077,
  " else": 2078,
  " pret": 2079,
  " body": 2080,
  " space": 2081,
  "rote": 2082,
  "elt": 2083,
  "over": 2084,
  "dd": 2085,
  " probably": 2086,
  ".)": 2087,
  "icult": 2088,
  "16": 2089,
  " front": 2090,
  " cou": 2091,
  " nothing": 2092,
  " sw": 2093,
  "ashington": 2094,
  " Im": 2095,
  " connect": 2096,
  "ches": 2097,
  " World": 2098,
  " research": 2099,
  "ming": 2100,
  " Clinton": 2101,
  "14": 2102,
  " City": 2103,
  " coming": 2104,
  " Israel": 2105,
  " points": 2106,
  "RE": 2107,
  " however": 2108,
  "go": 2109,
  " describ": 2110,
  " jo": 2111,
  "yn": 2112,
  " similar": 2113,
  " signific": 2114,
  "reme": 2115,
  "cing": 2116,
  "lier": 2117,
  " benef": 2118,
  " Aust": 2119,
  " decision": 2120,
  "aces": 2121,
  " either": 2122,
  " coun": 2123,
  "ault": 2124,
  "So": 2125,
  " mass": 2126,
  "mb": 2127,
  " Har": 2128,
  " sus": 2129,
  " targ": 2130,
  "ully": 2131,
  "ana": 2132,
  " feat": 2133,
  "That": 2134,
  " imm": 2135,
  " conv": 2136,
  " exist": 2137,
  "irl": 2138,
  " 2013": 2139,
  " enc": 2140,
  " service": 2141,
  " rights": 2142,
  " Su": 2143,
  "asing": 2144,
  "ung": 2145,
  "sw": 2146,
  "IS": 2147,
  " doc": 2148,
  " wrote": 2149,
  " fire": 2150,
  " further": 2151,
  " house": 2152,
  "rodu": 2153,
  " fig": 2154,
  " chall": 2155,
  " third": 2156,
  " ban": 2157,
  "ww": 2158,
  " wa": 2159,
  " stop": 2160,
  " create": 2161,
  "AN": 2162,
  " pick": 2163,
  "ape": 2164,
  " field": 2165,
  "ively": 2166,
  "now": 2167,
  " meas": 2168,
  " repl": 2169,
  " With": 2170,
  " compl": 2171,
  " issues": 2172,
  "pping": 2173,
  "amer": 2174,
  " super": 2175,
  " begin": 2176,
  " step": 2177,
  "ried": 2178,
  " whole": 2179,
  "ently": 2180,
  " relations": 2181,
  " seems": 2182,
  " companies": 2183,
  "pecially": 2184,
  " exec": 2185,
  " )": 2186,
  " due": 2187,
  " cand": 2188,
  " everything": 2189,
  " federal": 2190,
  " Gu": 2191,
  " states": 2192,
  " room": 2193,
  "aul": 2194,
  " ey": 2195,
  " tra": 2196,
  " watch": 2197,
  "oon": 2198,
  " Ge": 2199,
  " custom": 2200,
  " leaders": 2201,
  "uation": 2202,
  " Jan": 2203,
  "pite": 2204,
  " Washington": 2205,
  " However": 2206,
  "13": 2207,
  "Ch": 2208,
  "lam": 2209,
  "ran": 2210,
  " role": 2211,
  " self": 2212,
  "ilt": 2213,
  " lab": 2214,
  " sound": 2215,
  "ivil": 2216,
  " officials": 2217,
  "head": 2218,
  "att": 2219,
  " stri": 2220,
  "iday": 2221,
  " dam": 2222,
  " 2012": 2223,
  "lu": 2224,
  " released": 2225,
  "ibility": 2226,
  " Inst": 2227,
  "eal": 2228,
  " Dav": 2229,
  " began": 2230,
  " App": 2231,
  " South": 2232,
  " opt": 2233,
  "obal": 2234,
  " students": 2235,
  " treat": 2236,
  " final": 2237,
  " character": 2238,
  " matter": 2239,
  " position": 2240,
  "ender": 2241,
  "\u00e9": 2242,
  " ener": 2243,
  "lim": 2244,
  " outside": 2245,
  "ery": 2246,
  "sec": 2247,
  "ades": 2248,
  " dou": 2249,
  "vironment": 2250,
  " development": 2251,
  " statement": 2252,
  " himself": 2253,
  " 2017": 2254,
  "like": 2255,
  " above": 2256,
  " stat": 2257,
  " break": 2258,
  " init": 2259,
  " amount": 2260,
  " provide": 2261,
  " 100": 2262,
  " hours": 2263,
  " itself": 2264,
  " office": 2265,
  " themselves": 2266,
  " action": 2267,
  " represent": 2268,
  " Part": 2269,
  " di": 2270,
  " became": 2271,
  " 198": 2272,
  " continue": 2273,
  " Intern": 2274,
  " countries": 2275,
  " general": 2276,
  "iod": 2277,
  " 25": 2278,
  " neg": 2279,
  " gun": 2280,
  " address": 2281,
  "aced": 2282,
  "ask": 2283,
  " true": 2284,
  "ograph": 2285,
  " specific": 2286,
  "umb": 2287,
  "arter": 2288,
  " larg": 2289,
  "reg": 2290,
  "lish": 2291,
  " simply": 2292,
  " significant": 2293,
  " Ass": 2294,
  " Res": 2295,
  "'ll": 2296,
  " wasn": 2297,
  " interview": 2298,
  "acebook": 2299,
  "ili": 2300,
  " ground": 2301,
  " rad": 2302,
  "oid": 2303,
  " difficult": 2304,
  "ogn": 2305,
  " Just": 2306,
  " running": 2307,
  " evidence": 2308,
  " administ": 2309,
  "BC": 2310,
  " cop": 2311,
  "ream": 2312,
  "17": 2313,
  " version": 2314,
  " drug": 2315,
  "ogle": 2316,
  " bar": 2317,
  " Ed": 2318,
  "iddle": 2319,
  "eks": 2320,
  " agree": 2321,
  " China": 2322,
  " building": 2323,
  " needs": 2324,
  " profess": 2325,
  " groups": 2326,
  "angu": 2327,
  "right": 2328,
  " typ": 2329,
  " respons": 2330,
  " shows": 2331,
  " common": 2332,
  " everyone": 2333,
  " dom": 2334,
  " dest": 2335,
  " ball": 2336,
  " needed": 2337,
  " woman": 2338,
  " lat": 2339,
  " German": 2340,
  " below": 2341,
  " tem": 2342,
  "light": 2343,
  "ournal": 2344,
  " music": 2345,
  " exc": 2346,
  " release": 2347,
  "ift": 2348,
  " inj": 2349,
  " Med": 2350,
  " pretty": 2351,
  "AR": 2352,
  " Ab": 2353,
  "ribut": 2354,
  " include": 2355,
  " saw": 2356,
  " deep": 2357,
  " ap": 2358,
  "body": 2359,
  " played": 2360,
  "18": 2361,
  " quite": 2362,
  " charg": 2363,
  " industry": 2364,
  " energy": 2365,
  " playing": 2366,
  " mag": 2367,
  " mot": 2368,
  " 50": 2369,
  " candid": 2370,
  " sense": 2371,
  " white": 2372,
  " phys": 2373,
  " late": 2374,
  " alleg": 2375,
  " His": 2376,
  " friends": 2377,
  " legal": 2378,
  "ival": 2379,
  " gen": 2380,
  "atur": 2381,
  "isc": 2382,
  " anim": 2383,
  "bo": 2384,
  " After": 2385,
  "yle": 2386,
  "How": 2387,
  "where": 2388,
  "AS": 2389,
  "lev": 2390,
  " abs": 2391,
  " instead": 2392,
  " billion": 2393,
  " lost": 2394,
  " red": 2395,
  " especially": 2396,
  " West": 2397,
  " Mus": 2398,
  " value": 2399,
  " host": 2400,
  " hom": 2401,
  "osing": 2402,
  "oring": 2403,
  " News": 2404,
  "ager": 2405,
  "time": 2406,
  " ple": 2407,
  "istic": 2408,
  " weeks": 2409,
  "epend": 2410,
  " Not": 2411,
  "ccording": 2412,
  " forward": 2413,
  "omm": 2414,
  "ique": 2415,
  " recently": 2416,
  " deter": 2417,
  " election": 2418,
  " jud": 2419,
  " track": 2420,
  " vote": 2421,
  " Twitter": 2422,
  " suff": 2423,
  "irt": 2424,
  "lt": 2425,
  "medi": 2426,
  " object": 2427,
  " period": 2428,
  " changes": 2429,
  " opportun": 2430,
  " Oct": 2431,
  " White": 2432,
  " lo": 2433,
  " longer": 2434,
  "arc": 2435,
  " ep": 2436,
  "oke": 2437,
  "eed": 2438,
  " soon": 2439,
  " pain": 2440,
  " site": 2441,
  " {": 2442,
  "hod": 2443,
  "ached": 2444,
  " accept": 2445,
  "ript": 2446,
  " Cong": 2447,
  " shoot": 2448,
  "____": 2449,
  " economic": 2450,
  " hope": 2451,
  "irm": 2452,
  "oe": 2453,
  " moment": 2454,
  " pie": 2455,
  " Will": 2456,
  " decl": 2457,
  " consum": 2458,
  "lege": 2459,
  " check": 2460,
  " tit": 2461,
  "oph": 2462,
  "ij": 2463,
  " potential": 2464,
  " block": 2465,
  "ole": 2466,
  " wrong": 2467,
  "duct": 2468,
  " March": 2469,
  " Sept": 2470,
  "ners": 2471,
  "onse": 2472,
  " higher": 2473,
  " Department": 2474,
  " cred": 2475,
  " online": 2476,
  " 24": 2477,
  " focus": 2478,
  "key": 2479,
  " consider": 2480,
  " educ": 2481,
  "ancial": 2482,
  " My": 2483,
  "ns": 2484,
  "iding": 2485,
  " works": 2486,
  " circ": 2487,
  " share": 2488,
  " relig": 2489,
  " parent": 2490,
  "cial": 2491,
  " held": 2492,
  " Dr": 2493,
  "25": 2494,
  " pred": 2495,
  " walk": 2496,
  "==": 2497,
  " webs": 2498,
  " led": 2499,
  "ularly": 2500,
  " reve": 2501,
  " stay": 2502,
  " These": 2503,
  "lear": 2504,
  "overed": 2505,
  "alt": 2506,
  " stru": 2507,
  " Republican": 2508,
  " words": 2509,
  " Aug": 2510,
  " risk": 2511,
  " sold": 2512,
  " rev": 2513,
  " review": 2514,
  " contract": 2515,
  "icro": 2516,
  " results": 2517,
  " services": 2518,
  "They": 2519,
  " laws": 2520,
  "cil": 2521,
  " code": 2522,
  " Mich": 2523,
  " wind": 2524,
  " aud": 2525,
  " ce": 2526,
  " function": 2527,
  " Syri": 2528,
  "put": 2529,
  " total": 2530,
  "aut": 2531,
  "fect": 2532,
  " article": 2533,
  " age": 2534,
  " applic": 2535,
  " minutes": 2536,
  "urd": 2537,
  " Me": 2538,
  " personal": 2539,
  "ilities": 2540,
  "uary": 2541,
  " anyone": 2542,
  "itution": 2543,
  "ients": 2544,
  " June": 2545,
  "asons": 2546,
  "Ad": 2547,
  "ateg": 2548,
  "anger": 2549,
  " prim": 2550,
  " target": 2551,
  " Ste": 2552,
  " den": 2553,
  " earlier": 2554,
  "fer": 2555,
  " dead": 2556,
  "ule": 2557,
  " favor": 2558,
  "haps": 2559,
  " express": 2560,
  " upd": 2561,
  " popular": 2562,
  " answ": 2563,
  " comput": 2564,
  "che": 2565,
  "ham": 2566,
  " vol": 2567,
  "pril": 2568,
  " necess": 2569,
  "ES": 2570,
  " hy": 2571,
  " rate": 2572,
  "aging": 2573,
  " technology": 2574,
  "apan": 2575,
  " respect": 2576,
  " Pe": 2577,
  "val": 2578,
  " environment": 2579,
  " 2011": 2580,
  "Ph": 2581,
  " expected": 2582,
  " received": 2583,
  " goal": 2584,
  "ude": 2585,
  "ends": 2586,
  " Par": 2587,
  " created": 2588,
  " surpr": 2589,
  " anti": 2590,
  " base": 2591,
  " Sm": 2592,
  " July": 2593,
  "eter": 2594,
  "tee": 2595,
  " problems": 2596,
  "uel": 2597,
  " ways": 2598,
  " port": 2599,
  "iple": 2600,
  "action": 2601,
  " scient": 2602,
  " Do": 2603,
  " private": 2604,
  " comment": 2605,
  " increase": 2606,
  " announced": 2607,
  "reet": 2608,
  "ray": 2609,
  "isl": 2610,
  " easy": 2611,
  "Al": 2612,
  " cannot": 2613,
  " shot": 2614,
  " Congress": 2615,
  " questions": 2616,
  "bit": 2617,
  " force": 2618,
  "aterial": 2619,
  "hern": 2620,
  "na": 2621,
  " Mond": 2622,
  " impact": 2623,
  "ples": 2624,
  " pack": 2625,
  " et": 2626,
  " Facebook": 2627,
  " +": 2628,
  " langu": 2629,
  " pur": 2630,
  "atives": 2631,
  " God": 2632,
  " En": 2633,
  " involved": 2634,
  "omb": 2635,
  "aving": 2636,
  "ills": 2637,
  "lex": 2638,
  "onst": 2639,
  "60": 2640,
  "hood": 2641,
  " Austral": 2642,
  " div": 2643,
  "uesday": 2644,
  " execut": 2645,
  "ctor": 2646,
  " model": 2647,
  "itiz": 2648,
  " sen": 2649,
  " speak": 2650,
  " civil": 2651,
  " exact": 2652,
  " staff": 2653,
  "ourt": 2654,
  " nearly": 2655,
  "ires": 2656,
  " type": 2657,
  "okes": 2658,
  " content": 2659,
  "ees": 2660,
  " original": 2661,
  " cases": 2662,
  " terror": 2663,
  " relationship": 2664,
  " 197": 2665,
  " Google": 2666,
  "To": 2667,
  " Friday": 2668,
  " leave": 2669,
  " capt": 2670,
  " response": 2671,
  " inside": 2672,
  " <": 2673,
  " phot": 2674,
  "lled": 2675,
  "ech": 2676,
  " fans": 2677,
  "rem": 2678,
  " April": 2679,
  " Red": 2680,
  " international": 2681,
  "cast": 2682,
  " coll": 2683,
  " heart": 2684,
  " arrest": 2685,
  " broad": 2686,
  " average": 2687,
  " users": 2688,
  " Count": 2689,
  " cal": 2690,
  "At": 2691,
  " ur": 2692,
  "rel": 2693,
  " worth": 2694,
  " cell": 2695,
  " soft": 2696,
  " living": 2697,
  "\\u00e3\\u0081": 2698,
  "bor": 2699,
  " Em": 2700,
  " nation": 2701,
  " killed": 2702,
  " reports": 2703,
  "ky": 2704,
  "ging": 2705,
  "ips": 2706,
  " 2010": 2707,
  " becom": 2708,
  " Monday": 2709,
  " Tuesday": 2710,
  " source": 2711,
  "ests": 2712,
  " subject": 2713,
  " worked": 2714,
  "atural": 2715,
  " estab": 2716,
  " immedi": 2717,
  "EN": 2718,
  " respond": 2719,
  "joy": 2720,
  "ellig": 2721,
  " global": 2722,
  " club": 2723,
  " associ": 2724,
  " Americans": 2725,
  "ael": 2726,
  "ops": 2727,
  "ites": 2728,
  " obs": 2729,
  " Per": 2730,
  " Pal": 2731,
  " oil": 2732,
  " chance": 2733,
  " Act": 2734,
  " ability": 2735,
  " Ne": 2736,
  " takes": 2737,
  "rought": 2738,
  "hel": 2739,
  " price": 2740,
  " weap": 2741,
  " Japan": 2742,
  " director": 2743,
  "ological": 2744,
  "izing": 2745,
  " workers": 2746,
  " terms": 2747,
  " road": 2748,
  " published": 2749,
  " del": 2750,
  "mon": 2751,
  " While": 2752,
  " phone": 2753,
  " tou": 2754,
  "rain": 2755,
  " collect": 2756,
  " financial": 2757,
  " mid": 2758,
  "OR": 2759,
  "osition": 2760,
  " decided": 2761,
  "ises": 2762,
  " Wed": 2763,
  " Russia": 2764,
  " Some": 2765,
  " squ": 2766,
  " mother": 2767,
  " lack": 2768,
  " defin": 2769,
  "ovember": 2770,
  " girl": 2771,
  " store": 2772,
  " 40": 2773,
  " gave": 2774,
  " buy": 2775,
  " influ": 2776,
  " Calif": 2777,
  " happened": 2778,
  " log": 2779,
  "ino": 2780,
  " require": 2781,
  " Now": 2782,
  " emer": 2783,
  " fem": 2784,
  "\".": 2785,
  " capital": 2786,
  "clus": 2787,
  " foreign": 2788,
  " currently": 2789,
  "based": 2790,
  " San": 2791,
  " Off": 2792,
  " goes": 2793,
  " By": 2794,
  " Geor": 2795,
  "oved": 2796,
  "vertise": 2797,
  " situation": 2798,
  " indic": 2799,
  " whose": 2800,
  " offer": 2801,
  " tal": 2802,
  " @": 2803,
  " material": 2804,
  " lives": 2805,
  "unt": 2806,
  "rown": 2807,
  " affect": 2808,
  "ought": 2809,
  "nesday": 2810,
  " plans": 2811,
  " arri": 2812,
  " member": 2813,
  "ursday": 2814,
  " pict": 2815,
  " Feb": 2816,
  "ruction": 2817,
  " recogn": 2818,
  " turned": 2819,
  " events": 2820,
  " particip": 2821,
  " January": 2822,
  " Hill": 2823,
  " method": 2824,
  " network": 2825,
  "One": 2826,
  " teams": 2827,
  " Sund": 2828,
  " bank": 2829,
  " meeting": 2830,
  "40": 2831,
  " norm": 2832,
  " introdu": 2833,
  "rect": 2834,
  " simple": 2835,
  "fully": 2836,
  " Islam": 2837,
  " ill": 2838,
  " huge": 2839,
  " September": 2840,
  " Ag": 2841,
  " regard": 2842,
  "oud": 2843,
  " areas": 2844,
  " Cor": 2845,
  "ese": 2846,
  " cy": 2847,
  "order": 2848,
  " TV": 2849,
  " couple": 2850,
  "aur": 2851,
  " approach": 2852,
  " Afric": 2853,
  " career": 2854,
  "--------": 2855,
  "load": 2856,
  " Gl": 2857,
  " deli": 2858,
  "\",": 2859,
  " race": 2860,
  " page": 2861,
  "ety": 2862,
  " performance": 2863,
  "lin": 2864,
  " November": 2865,
  " David": 2866,
  "apt": 2867,
  " tool": 2868,
  " felt": 2869,
  " mis": 2870,
  " quickly": 2871,
  " numbers": 2872,
  "oor": 2873,
  " email": 2874,
  " 21": 2875,
  "aily": 2876,
  " ord": 2877,
  " El": 2878,
  "istan": 2879,
  " administration": 2880,
  " Wednesday": 2881,
  " Paul": 2882,
  " hon": 2883,
  " victim": 2884,
  " via": 2885,
  " improve": 2886,
  " engine": 2887,
  "chie": 2888,
  " fre": 2889,
  " pull": 2890,
  " Ang": 2891,
  " round": 2892,
  "bl": 2893,
  " 22": 2894,
  " built": 2895,
  " European": 2896,
  " pers": 2897,
  " dig": 2898,
  " Thursday": 2899,
  " father": 2900,
  "ornia": 2901,
  "ened": 2902,
  " loss": 2903,
  "avy": 2904,
  " thous": 2905,
  "ructure": 2906,
  " http": 2907,
  " production": 2908,
  "ume": 2909,
  " boy": 2910,
  " heard": 2911,
  "down": 2912,
  "\u00ad": 2913,
  "Sh": 2914,
  "\u201d.": 2915,
  " enjoy": 2916,
  " August": 2917,
  " economy": 2918,
  " trade": 2919,
  " Sch": 2920,
  " website": 2921,
  "face": 2922,
  " cover": 2923,
  " reveal": 2924,
  "iment": 2925,
  " board": 2926,
  " secret": 2927,
  "AL": 2928,
  " Court": 2929,
  " match": 2930,
  " wide": 2931,
  " travel": 2932,
  " spent": 2933,
  " allowed": 2934,
  " hands": 2935,
  " lower": 2936,
  " repe": 2937,
  " included": 2938,
  "atory": 2939,
  " poll": 2940,
  " ste": 2941,
  "cember": 2942,
  " October": 2943,
  " neigh": 2944,
  " legisl": 2945,
  "orters": 2946,
  "uses": 2947,
  " behav": 2948,
  "iction": 2949,
  " knew": 2950,
  " text": 2951,
  " wants": 2952,
  " town": 2953,
  "ights": 2954,
  " British": 2955,
  " separ": 2956,
  "estern": 2957,
  "ences": 2958,
  " visit": 2959,
  " Canada": 2960,
  "anks": 2961,
  "With": 2962,
  " perfect": 2963,
  "ze": 2964,
  " gets": 2965,
  "ession": 2966,
  "ctions": 2967,
  " movement": 2968,
  "ishing": 2969,
  "ground": 2970,
  " tried": 2971,
  " cause": 2972,
  "gest": 2973,
  "agement": 2974,
  "?\u201d": 2975,
  " forces": 2976,
  " }": 2977,
  " Sunday": 2978,
  " ens": 2979,
  "force": 2980,
  "After": 2981,
  "ceed": 2982,
  " attention": 2983,
  " particular": 2984,
  " bi": 2985,
  "][": 2986,
  "ening": 2987,
  " veh": 2988,
  " bud": 2989,
  " fear": 2990,
  " various": 2991,
  " population": 2992,
  "ma": 2993,
  " reach": 2994,
  " looks": 2995,
  " UK": 2996,
  " California": 2997,
  " 23": 2998,
  " brought": 2999,
  " vo": 3000,
  " Kore": 3001,
  " link": 3002,
  "ibly": 3003,
  ");": 3004,
  "urning": 3005,
  " IS": 3006,
  "arily": 3007,
  " previous": 3008,
  "ED": 3009,
  "200": 3010,
  " mention": 3011,
  " morning": 3012,
  " Russian": 3013,
  " Qu": 3014,
  "cle": 3015,
  "idered": 3016,
  "eg": 3017,
  "aker": 3018,
  "'d": 3019,
  " Sw": 3020,
  " growth": 3021,
  " fair": 3022,
  "undred": 3023,
  "99": 3024,
  "sequ": 3025,
  " fell": 3026,
  "yond": 3027,
  " progress": 3028,
  "raz": 3029,
  "alled": 3030,
  " song": 3031,
  "iam": 3032,
  " Cont": 3033,
  " training": 3034,
  "AC": 3035,
  "field": 3036,
  " size": 3037,
  "uk": 3038,
  "hold": 3039,
  "idents": 3040,
  " Black": 3041,
  " December": 3042,
  "cies": 3043,
  " contact": 3044,
  "While": 3045,
  " Her": 3046,
  "ledge": 3047,
  " demand": 3048,
  "ification": 3049,
  " image": 3050,
  " rac": 3051,
  " hor": 3052,
  " hot": 3053,
  " leader": 3054,
  "set": 3055,
  "OS": 3056,
  " prep": 3057,
  " rules": 3058,
  "ecause": 3059,
  " liber": 3060,
  " search": 3061,
  " ess": 3062,
  " Post": 3063,
  " citiz": 3064,
  " Street": 3065,
  " latest": 3066,
  " strugg": 3067,
  " upon": 3068,
  "come": 3069,
  " independ": 3070,
  "US": 3071,
  "arth": 3072,
  " coach": 3073,
  "uments": 3074,
  "inks": 3075,
  " features": 3076,
  "ondon": 3077,
  "iant": 3078,
  "Tr": 3079,
  " Park": 3080,
  " fast": 3081,
  "oo": 3082,
  " talking": 3083,
  " Jew": 3084,
  "sych": 3085,
  "omp": 3086,
  " addition": 3087,
  " star": 3088,
  "ges": 3089,
  " wond": 3090,
  " Senate": 3091,
  "IT": 3092,
  " Pat": 3093,
  "raq": 3094,
  "icles": 3095,
  " speed": 3096,
  " considered": 3097,
  " exam": 3098,
  "aries": 3099,
  " reb": 3100,
  "bed": 3101,
  " levels": 3102,
  "eth": 3103,
  " Times": 3104,
  " County": 3105,
  " investigation": 3106,
  "elligence": 3107,
  " slow": 3108,
  "ps": 3109,
  "ille": 3110,
  "aph": 3111,
  " Party": 3112,
  " conduct": 3113,
  " mach": 3114,
  " King": 3115,
  " medical": 3116,
  "22": 3117,
  "imately": 3118,
  "vent": 3119,
  " achie": 3120,
  " language": 3121,
  "aturday": 3122,
  " card": 3123,
  " sn": 3124,
  " critic": 3125,
  "unk": 3126,
  " Tex": 3127,
  "ope": 3128,
  " Center": 3129,
  " sort": 3130,
  " pen": 3131,
  " und": 3132,
  "wo": 3133,
  " paper": 3134,
  " India": 3135,
  "IC": 3136,
  "ysis": 3137,
  " conserv": 3138,
  "pir": 3139,
  " 2008": 3140,
  " parents": 3141,
  "imin": 3142,
  " sexual": 3143,
  " systems": 3144,
  " prior": 3145,
  "ha": 3146,
  "uit": 3147,
  "asc": 3148,
  " doll": 3149,
  " written": 3150,
  "uf": 3151,
  " box": 3152,
  " spokes": 3153,
  "igr": 3154,
  " seek": 3155,
  " document": 3156,
  "idge": 3157,
  "het": 3158,
  " sens": 3159,
  "eared": 3160,
  " increasing": 3161,
  " hear": 3162,
  "ani": 3163,
  " seven": 3164,
  "atform": 3165,
  " draw": 3166,
  " son": 3167,
  "ruary": 3168,
  " effort": 3169,
  " Muslim": 3170,
  " jobs": 3171,
  " Iran": 3172,
  " extreme": 3173,
  " prevent": 3174,
  " learn": 3175,
  "ining": 3176,
  " serious": 3177,
  " inn": 3178,
  " regul": 3179,
  "rast": 3180,
  " Mark": 3181,
  " Iraq": 3182,
  " ...": 3183,
  " violence": 3184,
  " range": 3185,
  "room": 3186,
  " eight": 3187,
  "ources": 3188,
  "itch": 3189,
  "OP": 3190,
  "80": 3191,
  " 2009": 3192,
  " surve": 3193,
  " completely": 3194,
  " conc": 3195,
  " message": 3196,
  "ico": 3197,
  "She": 3198,
  "tr": 3199,
  "reedom": 3200,
  " interesting": 3201,
  " obv": 3202,
  "abor": 3203,
  " screen": 3204,
  " opportunity": 3205,
  "\\u0020\\u00e2": 3206,
  "eff": 3207,
  " climate": 3208,
  " Ke": 3209,
  "ext": 3210,
  " majority": 3211,
  "24": 3212,
  " journal": 3213,
  "anced": 3214,
  " particularly": 3215,
  " doub": 3216,
  " Rom": 3217,
  " despite": 3218,
  " claims": 3219,
  " Char": 3220,
  " London": 3221,
  " answer": 3222,
  " society": 3223,
  " carry": 3224,
  " defense": 3225,
  "entially": 3226,
  " guy": 3227,
  "aming": 3228,
  " extra": 3229,
  " Donald": 3230,
  " attacks": 3231,
  "rench": 3232,
  "ension": 3233,
  "mp": 3234,
  "erve": 3235,
  "isions": 3236,
  " required": 3237,
  " biggest": 3238,
  "vertisement": 3239,
  "illed": 3240,
  "iers": 3241,
  " paid": 3242,
  " East": 3243,
  " exactly": 3244,
  "ibr": 3245,
  " More": 3246,
  " aren": 3247,
  " experien": 3248,
  "inese": 3249,
  "lying": 3250,
  " modern": 3251,
  " remain": 3252,
  "uclear": 3253,
  " quarter": 3254,
  " officers": 3255,
  "ett": 3256,
  " hundred": 3257,
  " cross": 3258,
  " except": 3259,
  "utions": 3260,
  " table": 3261,
  "ari": 3262,
  " practice": 3263,
  "inally": 3264,
  " middle": 3265,
  " natural": 3266,
  " 27": 3267,
  "erc": 3268,
  " certainly": 3269,
  "add": 3270,
  " dro": 3271,
  " Saturday": 3272,
  " stories": 3273,
  "oses": 3274,
  " Net": 3275,
  " gas": 3276,
  " products": 3277,
  " histor": 3278,
  " looked": 3279,
  " surv": 3280,
  " sometimes": 3281,
  "nces": 3282,
  " stuff": 3283,
  " rout": 3284,
  " science": 3285,
  " finally": 3286,
  " movie": 3287,
  "AM": 3288,
  " blood": 3289,
  " user": 3290,
  " summer": 3291,
  "ospital": 3292,
  "aves": 3293,
  " communic": 3294,
  " changed": 3295,
  " lay": 3296,
  " aw": 3297,
  "ously": 3298,
  " ones": 3299,
  " described": 3300,
  " leading": 3301,
  " term": 3302,
  " Sand": 3303,
  " imag": 3304,
  " February": 3305,
  " prison": 3306,
  "fl": 3307,
  " convers": 3308,
  " details": 3309,
  "ny": 3310,
  "icks": 3311,
  " starting": 3312,
  " Spe": 3313,
  " occur": 3314,
  " pan": 3315,
  " quality": 3316,
  "hib": 3317,
  " showed": 3318,
  " named": 3319,
  " remains": 3320,
  " giving": 3321,
  " McC": 3322,
  " region": 3323,
  " ult": 3324,
  "uing": 3325,
  "pper": 3326,
  " provided": 3327,
  " costs": 3328,
  " Soc": 3329,
  "akers": 3330,
  "arr": 3331,
  " danger": 3332,
  " mob": 3333,
  " damage": 3334,
  " fit": 3335,
  " Tur": 3336,
  "aught": 3337,
  " chief": 3338,
  " poor": 3339,
  " TH": 3340,
  " Mor": 3341,
  "ida": 3342,
  " path": 3343,
  " education": 3344,
  " multiple": 3345,
  " continued": 3346,
  "enge": 3347,
  "No": 3348,
  " growing": 3349,
  " Int": 3350,
  " demonst": 3351,
  " Che": 3352,
  " 26": 3353,
  " parts": 3354,
  " *": 3355,
  "yl": 3356,
  " comments": 3357,
  " writing": 3358,
  " ment": 3359,
  " 28": 3360,
  " safe": 3361,
  " assist": 3362,
  " maintain": 3363,
  " thinking": 3364,
  "inary": 3365,
  " Des": 3366,
  " Republicans": 3367,
  " Even": 3368,
  " purp": 3369,
  " request": 3370,
  " write": 3371,
  " fix": 3372,
  " item": 3373,
  " purch": 3374,
  " Democratic": 3375,
  "FL": 3376,
  " died": 3377,
  "ables": 3378,
  "ago": 3379,
  " Coun": 3380,
  "coin": 3381,
  " ready": 3382,
  " implement": 3383,
  " wouldn": 3384,
  " culture": 3385,
  "fort": 3386,
  " increased": 3387,
  "23": 3388,
  " efforts": 3389,
  " voters": 3390,
  " camer": 3391,
  "pre": 3392,
  " mill": 3393,
  "aly": 3394,
  "ux": 3395,
  "oper": 3396,
  "iminal": 3397,
  " reading": 3398,
  "mitted": 3399,
  " spot": 3400,
  " calls": 3401,
  " file": 3402,
  " usually": 3403,
  "Im": 3404,
  " effects": 3405,
  "....": 3406,
  " Gener": 3407,
  "ban": 3408,
  " perhaps": 3409,
  "zz": 3410,
  "arian": 3411,
  " alone": 3412,
  "iles": 3413,
  " First": 3414,
  " League": 3415,
  " towards": 3416,
  " although": 3417,
  " Bill": 3418,
  " select": 3419,
  " Texas": 3420,
  "de": 3421,
  " consist": 3422,
  " guys": 3423,
  " standard": 3424,
  " Michael": 3425,
  " cele": 3426,
  " Chinese": 3427,
  " beyond": 3428,
  " (@": 3429,
  " subst": 3430,
  " directly": 3431,
  " hous": 3432,
  " platform": 3433,
  "itute": 3434,
  "using": 3435,
  " speech": 3436,
  " reality": 3437,
  "icated": 3438,
  " kids": 3439,
  " James": 3440,
  " football": 3441,
  " avoid": 3442,
  " throughout": 3443,
  " student": 3444,
  "ara": 3445,
  "BI": 3446,
  " couldn": 3447,
  " unf": 3448,
  "rowd": 3449,
  " immediately": 3450,
  "ford": 3451,
  "oul": 3452,
  " includes": 3453,
  " rob": 3454,
  " center": 3455,
  " cat": 3456,
  " choice": 3457,
  "egr": 3458,
  " concept": 3459,
  " scene": 3460,
  " Mon": 3461,
  "anch": 3462,
  " complex": 3463,
  " additional": 3464,
  "sp": 3465,
  " challeng": 3466,
  " Cons": 3467,
  " wife": 3468,
  " clos": 3469,
  "urt": 3470,
  " researc": 3471,
  " recomm": 3472,
  " tro": 3473,
  " epis": 3474,
  "Re": 3475,
  "hest": 3476,
  "All": 3477,
  " Minister": 3478,
  "itor": 3479,
  " ver": 3480,
  " sle": 3481,
  " corpor": 3482,
  " \u2026": 3483,
  " designed": 3484,
  " remember": 3485,
  "agon": 3486,
  " safety": 3487,
  "urg": 3488,
  " software": 3489,
  " Indian": 3490,
  " gone": 3491,
  " Ser": 3492,
  " il": 3493,
  "wise": 3494,
  "astic": 3495,
  "ports": 3496,
  " cast": 3497,
  " sell": 3498,
  " agency": 3499,
  " officer": 3500,
  " toward": 3501,
  "aches": 3502,
  " ten": 3503,
  " figure": 3504,
  " piece": 3505,
  " brain": 3506,
  " battle": 3507,
  " counter": 3508,
  "omen": 3509,
  " Jack": 3510,
  "men": 3511,
  " debate": 3512,
  "airs": 3513,
  "ston": 3514,
  " thousands": 3515,
  " swe": 3516,
  "ression": 3517,
  "rupt": 3518,
  "adem": 3519,
  " opin": 3520,
  " ahead": 3521,
  "Now": 3522,
  "icient": 3523,
  " relative": 3524,
  " letter": 3525,
  "irth": 3526,
  "imum": 3527,
  " pressure": 3528,
  " receive": 3529,
  "oes": 3530,
  " blog": 3531,
  "\\u0020\\u00d0": 3532,
  "ilies": 3533,
  "ampions": 3534,
  " launch": 3535,
  " sil": 3536,
  " moved": 3537,
  " appears": 3538,
  " option": 3539,
  " >": 3540,
  " passed": 3541,
  " Play": 3542,
  " ut": 3543,
  " Bo": 3544,
  " prec": 3545,
  " stage": 3546,
  " 60": 3547,
  "roy": 3548,
  " clean": 3549,
  " Serv": 3550,
  "atever": 3551,
  "olute": 3552,
  " II": 3553,
  "berg": 3554,
  "OT": 3555,
  " property": 3556,
  " helped": 3557,
  "27": 3558,
  "amb": 3559,
  " Green": 3560,
  " alleged": 3561,
  " drive": 3562,
  " Apple": 3563,
  " twe": 3564,
  "just": 3565,
  " tour": 3566,
  " disapp": 3567,
  "new": 3568,
  " rock": 3569,
  " meaning": 3570,
  " dog": 3571,
  " Rich": 3572,
  " suspect": 3573,
  " cris": 3574,
  " Associ": 3575,
  " x": 3576,
  "itation": 3577,
  " date": 3578,
  " Democrats": 3579,
  " moving": 3580,
  " score": 3581,
  "aughter": 3582,
  " organization": 3583,
  " sat": 3584,
  " touch": 3585,
  " dark": 3586,
  " conditions": 3587,
  " command": 3588,
  " budget": 3589,
  " ign": 3590,
  " reasons": 3591,
  " Then": 3592,
  "?\"": 3593,
  " park": 3594,
  "more": 3595,
  " myself": 3596,
  " happy": 3597,
  " nom": 3598,
  " nuclear": 3599,
  " device": 3600,
  " deg": 3601,
  "rief": 3602,
  " difference": 3603,
  " maybe": 3604,
  " beginning": 3605,
  "chan": 3606,
  "AD": 3607,
  " copy": 3608,
  " Sim": 3609,
  " fan": 3610,
  "wood": 3611,
  " failed": 3612,
  " nature": 3613,
  " characters": 3614,
  " computer": 3615,
  "yan": 3616,
  " encour": 3617,
  " aim": 3618,
  " Mart": 3619,
  " title": 3620,
  " league": 3621,
  " compared": 3622,
  "ocked": 3623,
  " Super": 3624,
  " wall": 3625,
  " Val": 3626,
  "ivity": 3627,
  " estim": 3628,
  " Star": 3629,
  " college": 3630,
  " English": 3631,
  " eyes": 3632,
  " powerful": 3633,
  " shown": 3634,
  " century": 3635,
  " Day": 3636,
  "lease": 3637,
  " bal": 3638,
  " yes": 3639,
  "ource": 3640,
  " limited": 3641,
  "aint": 3642,
  " band": 3643,
  " contribut": 3644,
  " sche": 3645,
  " positive": 3646,
  " forced": 3647,
  " necessary": 3648,
  " refer": 3649,
  " candidate": 3650,
  " stra": 3651,
  " disp": 3652,
  "cient": 3653,
  " books": 3654,
  "35": 3655,
  " trust": 3656,
  " largest": 3657,
  " French": 3658,
  " arch": 3659,
  "AP": 3660,
  "enty": 3661,
  "ufact": 3662,
  "aud": 3663,
  "26": 3664,
  " sal": 3665,
  " Here": 3666,
  " Rober": 3667,
  " conference": 3668,
  " note": 3669,
  " spending": 3670,
  " analysis": 3671,
  " presidential": 3672,
  "45": 3673,
  " Of": 3674,
  " citizens": 3675,
  "orks": 3676,
  " schools": 3677,
  "igration": 3678,
  " Syria": 3679,
  " Ben": 3680,
  " throw": 3681,
  "venue": 3682,
  " executive": 3683,
  " eventually": 3684,
  " meant": 3685,
  " aware": 3686,
  "My": 3687,
  " physical": 3688,
  " followed": 3689,
  " feature": 3690,
  " Tor": 3691,
  " crowd": 3692,
  " treatment": 3693,
  "Be": 3694,
  " Wind": 3695,
  " firm": 3696,
  " streng": 3697,
  " confir": 3698,
  " mix": 3699,
  "ero": 3700,
  " bott": 3701,
  "orney": 3702,
  " 29": 3703,
  "ares": 3704,
  " correct": 3705,
  " Dis": 3706,
  " grad": 3707,
  " religious": 3708,
  " easily": 3709,
  " esc": 3710,
  " pus": 3711,
  " autom": 3712,
  "band": 3713,
  "Is": 3714,
  "board": 3715,
  " cool": 3716,
  "etro": 3717,
  " illeg": 3718,
  " families": 3719,
  " 196": 3720,
  "craft": 3721,
  "ressed": 3722,
  "rated": 3723,
  " Air": 3724,
  " actions": 3725,
  " Mex": 3726,
  "cul": 3727,
  " overall": 3728,
  " allows": 3729,
  " feed": 3730,
  " gives": 3731,
  " \u00a3": 3732,
  "By": 3733,
  " yourself": 3734,
  " susp": 3735,
  "ube": 3736,
  " draft": 3737,
  "bum": 3738,
  " appeared": 3739,
  "):": 3740,
  "ken": 3741,
  " smart": 3742,
  " detail": 3743,
  " analy": 3744,
  " income": 3745,
  " signed": 3746,
  " Bel": 3747,
  "iring": 3748,
  "New": 3749,
  "encies": 3750,
  " central": 3751,
  " ideas": 3752,
  " ang": 3753,
  " senior": 3754,
  " Govern": 3755,
  " frequ": 3756,
  "Advertisement": 3757,
  "ID": 3758,
  " weapons": 3759,
  " har": 3760,
  " Bre": 3761,
  " promot": 3762,
  " display": 3763,
  " nice": 3764,
  " decades": 3765,
  " politics": 3766,
  " credit": 3767,
  " psych": 3768,
  "Don": 3769,
  " crime": 3770,
  "OM": 3771,
  " uses": 3772,
  "EC": 3773,
  "inn": 3774,
  " dise": 3775,
  " door": 3776,
  " International": 3777,
  " unique": 3778,
  "uty": 3779,
  "According": 3780,
  " altern": 3781,
  "28": 3782,
  " lif": 3783,
  " drop": 3784,
  " sales": 3785,
  "mar": 3786,
  " developed": 3787,
  "resh": 3788,
  " customers": 3789,
  " benefits": 3790,
  "Ar": 3791,
  "ET": 3792,
  " related": 3793,
  "urance": 3794,
  " conflic": 3795,
  " crisis": 3796,
  " School": 3797,
  " mist": 3798,
  "erry": 3799,
  " Australia": 3800,
  " Cap": 3801,
  "iable": 3802,
  " noted": 3803,
  " predict": 3804,
  " truth": 3805,
  "29": 3806,
  " EU": 3807,
  "box": 3808,
  "part": 3809,
  " goals": 3810,
  "iny": 3811,
  " individuals": 3812,
  " Earth": 3813,
  " charge": 3814,
  " continues": 3815,
  " beaut": 3816,
  "onents": 3817,
  " Union": 3818,
  " Arab": 3819,
  " rap": 3820,
  " challenge": 3821,
  " observ": 3822,
  "nown": 3823,
  " sto": 3824,
  " apparent": 3825,
  " Angel": 3826,
  " Smith": 3827,
  "itely": 3828,
  " peace": 3829,
  " projects": 3830,
  " lic": 3831,
  " measure": 3832,
  " Police": 3833,
  " previously": 3834,
  " intelligence": 3835,
  " Christian": 3836,
  "oti": 3837,
  " fully": 3838,
  " rule": 3839,
  " manager": 3840,
  " Germany": 3841,
  " rates": 3842,
  " brother": 3843,
  "Un": 3844,
  " advant": 3845,
  "change": 3846,
  " expand": 3847,
  " reform": 3848,
  " clearly": 3849,
  " lines": 3850,
  "net": 3851,
  "riage": 3852,
  " successful": 3853,
  " highly": 3854,
  " larger": 3855,
  "21": 3856,
  "ounds": 3857,
  " spread": 3858,
  " traff": 3859,
  "iance": 3860,
  " seemed": 3861,
  " Council": 3862,
  " straight": 3863,
  "Some": 3864,
  " criminal": 3865,
  " Comp": 3866,
  " minor": 3867,
  " emb": 3868,
  " programs": 3869,
  " George": 3870,
  "ki": 3871,
  "attle": 3872,
  "iced": 3873,
  " Franc": 3874,
  " incident": 3875,
  "owers": 3876,
  " resources": 3877,
  " Tom": 3878,
  " primary": 3879,
  " greater": 3880,
  "IA": 3881,
  "inated": 3882,
  "antly": 3883,
  "while": 3884,
  "Pro": 3885,
  " knowledge": 3886,
  " studies": 3887,
  " save": 3888,
  "orter": 3889,
  " attract": 3890,
  " Flor": 3891,
  "dom": 3892,
  "ean": 3893,
  " web": 3894,
  "ategy": 3895,
  " kept": 3896,
  "olic": 3897,
  " emot": 3898,
  " spir": 3899,
  "que": 3900,
  " color": 3901,
  " Cr": 3902,
  " Ant": 3903,
  " feet": 3904,
  "sey": 3905,
  " rare": 3906,
  " reached": 3907,
  "secut": 3908,
  "levision": 3909,
  " arm": 3910,
  " High": 3911,
  " Internet": 3912,
  " Brown": 3913,
  "oday": 3914,
  "iders": 3915,
  "osh": 3916,
  " places": 3917,
  "ota": 3918,
  " favorite": 3919,
  " Rec": 3920,
  "rs": 3921,
  " regular": 3922,
  "vere": 3923,
  "wide": 3924,
  " manufact": 3925,
  " laun": 3926,
  " Ham": 3927,
  " Def": 3928,
  " send": 3929,
  "100": 3930,
  "lick": 3931,
  " prem": 3932,
  "roll": 3933,
  "icit": 3934,
  " knows": 3935,
  " shooting": 3936,
  " pun": 3937,
  " normal": 3938,
  "icago": 3939,
  " sources": 3940,
  " activity": 3941,
  "bon": 3942,
  "term": 3943,
  "onent": 3944,
  "ingly": 3945,
  "ser": 3946,
  "ville": 3947,
  " rise": 3948,
  " fighting": 3949,
  " status": 3950,
  " voice": 3951,
  "ocks": 3952,
  " fine": 3953,
  " owners": 3954,
  " Mac": 3955,
  " claimed": 3956,
  " caused": 3957,
  " enem": 3958,
  " Rob": 3959,
  " liter": 3960,
  " Up": 3961,
  " General": 3962,
  "EO": 3963,
  " options": 3964,
  "aith": 3965,
  " 2007": 3966,
  " integr": 3967,
  " spend": 3968,
  "usion": 3969,
  "ength": 3970,
  " cities": 3971,
  " Gold": 3972,
  "ado": 3973,
  " organiz": 3974,
  "miss": 3975,
  "ING": 3976,
  " ended": 3977,
  " researchers": 3978,
  " calling": 3979,
  "iled": 3980,
  " shut": 3981,
  " reflect": 3982,
  " La": 3983,
  "mission": 3984,
  "\u201d,": 3985,
  "mark": 3986,
  "org": 3987,
  "oles": 3988,
  " prices": 3989,
  "70": 3990,
  "roid": 3991,
  " Every": 3992,
  " album": 3993,
  " From": 3994,
  " employees": 3995,
  " England": 3996,
  " female": 3997,
  "ifying": 3998,
  "ya": 3999,
  " virt": 4000,
  "www": 4001,
  " haven": 4002,
  "uana": 4003,
  "mittee": 4004,
  " raised": 4005,
  " ele": 4006,
  " supposed": 4007,
  " jump": 4008,
  " policies": 4009,
  " happens": 4010,
  "itness": 4011,
  " adding": 4012,
  "33": 4013,
  " names": 4014,
  " charges": 4015,
  " pros": 4016,
  "iverse": 4017,
  " trou": 4018,
  "ribution": 4019,
  "ica": 4020,
  " basic": 4021,
  "Not": 4022,
  " concerns": 4023,
  "inger": 4024,
  "uman": 4025,
  " traditional": 4026,
  " plant": 4027,
  " Mag": 4028,
  " wait": 4029,
  " acqu": 4030,
  " hospital": 4031,
  " absolute": 4032,
  " funding": 4033,
  "ram": 4034,
  " Bay": 4035,
  " authorities": 4036,
  " print": 4037,
  " slight": 4038,
  " minister": 4039,
  " commer": 4040,
  "rol": 4041,
  " patients": 4042,
  "Sc": 4043,
  " creating": 4044,
  " freedom": 4045,
  " AP": 4046,
  " mechan": 4047,
  " scen": 4048,
  " Mo": 4049,
  " seeing": 4050,
  " style": 4051,
  ".\u2019": 4052,
  " grand": 4053,
  " lik": 4054,
  " beat": 4055,
  "ona": 4056,
  "rian": 4057,
  " station": 4058,
  " Scott": 4059,
  "ijuana": 4060,
  " push": 4061,
  "see": 4062,
  " leaving": 4063,
  " beg": 4064,
  " cry": 4065,
  " behavior": 4066,
  " impl": 4067,
  " birth": 4068,
  " ir": 4069,
  " actual": 4070,
  "EL": 4071,
  " ensure": 4072,
  " Florida": 4073,
  " offered": 4074,
  "pen": 4075,
  " eth": 4076,
  " agreement": 4077,
  "soft": 4078,
  " Hillary": 4079,
  " posted": 4080,
  " gold": 4081,
  " weekend": 4082,
  " Sun": 4083,
  " green": 4084,
  " Ber": 4085,
  " Most": 4086,
  " adult": 4087,
  "alse": 4088,
  "OU": 4089,
  " Reg": 4090,
  " weight": 4091,
  " vac": 4092,
  "acing": 4093,
  "Here": 4094,
  ".'": 4095,
  " revealed": 4096,
  " determin": 4097,
  "aby": 4098,
  " Well": 4099,
  " Alex": 4100,
  " propos": 4101,
  " mostly": 4102,
  " application": 4103,
  "itude": 4104,
  " values": 4105,
  " willing": 4106,
  " rank": 4107,
  "earch": 4108,
  " According": 4109,
  " adop": 4110,
  " establ": 4111,
  " eye": 4112,
  " records": 4113,
  "\u2022": 4114,
  "500": 4115,
  " enforce": 4116,
  "ection": 4117,
  " picture": 4118,
  "http": 4119,
  " believed": 4120,
  " mer": 4121,
  " brief": 4122,
  " Let": 4123,
  "pri": 4124,
  " learned": 4125,
  "uild": 4126,
  " Law": 4127,
  " install": 4128,
  " strategy": 4129,
  "igned": 4130,
  " appl": 4131,
  "SA": 4132,
  " choose": 4133,
  "istry": 4134,
  " dire": 4135,
  " wonder": 4136,
  " qual": 4137,
  " massive": 4138,
  " benefit": 4139,
  " lawy": 4140,
  " Chicago": 4141,
  " People": 4142,
  " parties": 4143,
  " devices": 4144,
  " wild": 4145,
  " uns": 4146,
  " cars": 4147,
  "cher": 4148,
  " Port": 4149,
  " Trans": 4150,
  "cont": 4151,
  " arrested": 4152,
  " Phil": 4153,
  " street": 4154,
  " mount": 4155,
  " France": 4156,
  " wat": 4157,
  " whatever": 4158,
  " Oh": 4159,
  " provides": 4160,
  " whom": 4161,
  " assault": 4162,
  " ;": 4163,
  "90": 4164,
  "liament": 4165,
  " fat": 4166,
  "ties": 4167,
  " asking": 4168,
  " judge": 4169,
  " lose": 4170,
  " influence": 4171,
  " operations": 4172,
  " feeling": 4173,
  " produced": 4174,
  " Lou": 4175,
  " temper": 4176,
  "ste": 4177,
  " critical": 4178,
  " Secret": 4179,
  " negoti": 4180,
  "point": 4181,
  " mission": 4182,
  " enter": 4183,
  "IL": 4184,
  " images": 4185,
  " Bush": 4186,
  "\u043e": 4187,
  "Ex": 4188,
  " confirmed": 4189,
  " Stud": 4190,
  " showing": 4191,
  " district": 4192,
  "gen": 4193,
  " runs": 4194,
  "ription": 4195,
  " pattern": 4196,
  " Mat": 4197,
  " tend": 4198,
  " residents": 4199,
  "rav": 4200,
  " border": 4201,
  "orial": 4202,
  " debt": 4203,
  "However": 4204,
  "no": 4205,
  " cru": 4206,
  "aked": 4207,
  "\\u0020\\u00c3": 4208,
  " Committee": 4209,
  " teac": 4210,
  "mine": 4211,
  " opposition": 4212,
  " celebr": 4213,
  "Cl": 4214,
  "udd": 4215,
  " Health": 4216,
  " Wall": 4217,
  " defend": 4218,
  " produce": 4219,
  " section": 4220,
  "estic": 4221,
  " etc": 4222,
  "icial": 4223,
  " drink": 4224,
  " brand": 4225,
  " Commission": 4226,
  " Mod": 4227,
  " independent": 4228,
  "cell": 4229,
  "ront": 4230,
  " Why": 4231,
  "ented": 4232,
  "ags": 4233,
  "ugg": 4234,
  " tick": 4235,
  " core": 4236,
  " Press": 4237,
  " digital": 4238,
  " hero": 4239,
  " advoc": 4240,
  " Bit": 4241,
  "ae": 4242,
  " dollars": 4243,
  " solution": 4244,
  " vill": 4245,
  "rial": 4246,
  "ocr": 4247,
  " effective": 4248,
  " Sam": 4249,
  " interested": 4250,
  " Mal": 4251,
  "BA": 4252,
  " Korea": 4253,
  " highest": 4254,
  "ords": 4255,
  " memory": 4256,
  " opening": 4257,
  " worse": 4258,
  " learning": 4259,
  " responsible": 4260,
  " trial": 4261,
  " daily": 4262,
  " kick": 4263,
  " theory": 4264,
  " offers": 4265,
  " Other": 4266,
  " Palest": 4267,
  " replace": 4268,
  " Get": 4269,
  " restrict": 4270,
  " television": 4271,
  " mur": 4272,
  " agreed": 4273,
  " Francis": 4274,
  " Office": 4275,
  "cience": 4276,
  "ST": 4277,
  " Because": 4278,
  " occas": 4279,
  "illing": 4280,
  " Micro": 4281,
  "CC": 4282,
  " train": 4283,
  " investment": 4284,
  " types": 4285,
  " Western": 4286,
  "aks": 4287,
  " miles": 4288,
  "icians": 4289,
  " chair": 4290,
  "iation": 4291,
  " millions": 4292,
  " vs": 4293,
  " Justice": 4294,
  "uries": 4295,
  " Del": 4296,
  " Mil": 4297,
  " chem": 4298,
  " Cup": 4299,
  " Mike": 4300,
  " 80": 4301,
  " proposed": 4302,
  " basis": 4303,
  " generally": 4304,
  "These": 4305,
  "ipe": 4306,
  " heavy": 4307,
  " explained": 4308,
  " map": 4309,
  "AA": 4310,
  " Our": 4311,
  "rad": 4312,
  " der": 4313,
  "oly": 4314,
  " bur": 4315,
  " Add": 4316,
  " partners": 4317,
  "ander": 4318,
  " opinion": 4319,
  " protest": 4320,
  " defe": 4321,
  "win": 4322,
  " onto": 4323,
  "Get": 4324,
  " load": 4325,
  "Con": 4326,
  " NFL": 4327,
  "________": 4328,
  "rig": 4329,
  " associated": 4330,
  "azing": 4331,
  "oom": 4332,
  "rate": 4333,
  " Found": 4334,
  "44": 4335,
  "====": 4336,
  " male": 4337,
  "outhern": 4338,
  " reject": 4339,
  " coal": 4340,
  " becomes": 4341,
  " Security": 4342,
  "vest": 4343,
  " destroy": 4344,
  " obtain": 4345,
  " assum": 4346,
  " announce": 4347,
  " advantage": 4348,
  " Liber": 4349,
  " hundreds": 4350,
  " condition": 4351,
  " opened": 4352,
  " achieve": 4353,
  "eline": 4354,
  " Johnson": 4355,
  " understanding": 4356,
  "coming": 4357,
  "odes": 4358,
  "icip": 4359,
  "orthern": 4360,
  " surround": 4361,
  "ading": 4362,
  "well": 4363,
  "la": 4364,
  "bert": 4365,
  "upp": 4366,
  " Big": 4367,
  " initial": 4368,
  " Att": 4369,
  " sleep": 4370,
  "36": 4371,
  " ship": 4372,
  " marriage": 4373,
  " Windows": 4374,
  " management": 4375,
  " becoming": 4376,
  "known": 4377,
  " born": 4378,
  "32": 4379,
  " thus": 4380,
  " limit": 4381,
  " photo": 4382,
  " easier": 4383,
  "FC": 4384,
  " Great": 4385,
  " legislation": 4386,
  " rat": 4387,
  " controvers": 4388,
  " unlike": 4389,
  " camera": 4390,
  " electric": 4391,
  " Many": 4392,
  "witch": 4393,
  " accused": 4394,
  " spl": 4395,
  " neighbor": 4396,
  " ice": 4397,
  " double": 4398,
  " shared": 4399,
  "lant": 4400,
  " species": 4401,
  " join": 4402,
  " 31": 4403,
  " illegal": 4404,
  "Mr": 4405,
  " Lab": 4406,
  " machine": 4407,
  " 2006": 4408,
  " Jer": 4409,
  " harm": 4410,
  " served": 4411,
  " extremely": 4412,
  " 35": 4413,
  "olf": 4414,
  "GB": 4415,
  " serve": 4416,
  " active": 4417,
  " documents": 4418,
  " strik": 4419,
  " frame": 4420,
  "BS": 4421,
  " Islamic": 4422,
  "za": 4423,
  " location": 4424,
  "level": 4425,
  " audience": 4426,
  " Dist": 4427,
  " scientists": 4428,
  " victims": 4429,
  "orrow": 4430,
  " bottom": 4431,
  " professional": 4432,
  " wealth": 4433,
  " AM": 4434,
  " Art": 4435,
  " winning": 4436,
  " marijuana": 4437,
  "ih": 4438,
  " reduce": 4439,
  " resist": 4440,
  " belief": 4441,
  " Uk": 4442,
  " nine": 4443,
  " solid": 4444,
  "ears": 4445,
  " communities": 4446,
  " negative": 4447,
  "iful": 4448,
  "ortunately": 4449,
  " returned": 4450,
  "75": 4451,
  " bed": 4452,
  " incred": 4453,
  " Institute": 4454,
  " church": 4455,
  "tered": 4456,
  "met": 4457,
  "rey": 4458,
  "irgin": 4459,
  " department": 4460,
  " PM": 4461,
  " ran": 4462,
  " victory": 4463,
  " Sanders": 4464,
  "PS": 4465,
  " Commun": 4466,
  " amb": 4467,
  " purpose": 4468,
  " 90": 4469,
  " vehicle": 4470,
  " internet": 4471,
  "istics": 4472,
  "lands": 4473,
  " Hall": 4474,
  " leadership": 4475,
  "ios": 4476,
  " bomb": 4477,
  " mobile": 4478,
  "ipped": 4479,
  "ghan": 4480,
  " instance": 4481,
  " hearing": 4482,
  "38": 4483,
  " notice": 4484,
  " separate": 4485,
  " existing": 4486,
  " episode": 4487,
  " die": 4488,
  " doubt": 4489,
  " explain": 4490,
  "house": 4491,
  " teach": 4492,
  " Your": 4493,
  "atically": 4494,
  " faith": 4495,
  " Canadian": 4496,
  " watching": 4497,
  " comfort": 4498,
  " Bank": 4499,
  " notes": 4500,
  " Ev": 4501,
  " Fin": 4502,
  " fresh": 4503,
  " radio": 4504,
  "asy": 4505,
  " putting": 4506,
  " views": 4507,
  " unc": 4508,
  " supporters": 4509,
  " conservative": 4510,
  "omas": 4511,
  " purs": 4512,
  " Inc": 4513,
  " argument": 4514,
  " micro": 4515,
  "ario": 4516,
  " launched": 4517,
  "works": 4518,
  "acity": 4519,
  " appeal": 4520,
  "scrib": 4521,
  "iliar": 4522,
  "OL": 4523,
  " items": 4524,
  " committee": 4525,
  " Mad": 4526,
  "resp": 4527,
  " definitely": 4528,
  "which": 4529,
  "zen": 4530,
  "iller": 4531,
  " dangerous": 4532,
  "PA": 4533,
  " coverage": 4534,
  " direction": 4535,
  " charged": 4536,
  " Over": 4537,
  " sun": 4538,
  " floor": 4539,
  "ography": 4540,
  " Fox": 4541,
  " issued": 4542,
  " max": 4543,
  "Image": 4544,
  "EM": 4545,
  " Carol": 4546,
  " Church": 4547,
  "34": 4548,
  " drugs": 4549,
  "ipp": 4550,
  " task": 4551,
  " competition": 4552,
  " background": 4553,
  " trend": 4554,
  "vention": 4555,
  " stated": 4556,
  "ada": 4557,
  " FBI": 4558,
  "andom": 4559,
  " commercial": 4560,
  " traffic": 4561,
  " Direct": 4562,
  "itt": 4563,
  "urb": 4564,
  " sett": 4565,
  " spoke": 4566,
  "NA": 4567,
  "inct": 4568,
  " sites": 4569,
  " structure": 4570,
  " suggested": 4571,
  " transfer": 4572,
  " north": 4573,
  " hus": 4574,
  " labor": 4575,
  " decade": 4576,
  " Since": 4577,
  " Like": 4578,
  "ampionship": 4579,
  " restaur": 4580,
  " Game": 4581,
  "oman": 4582,
  " repeated": 4583,
  " cards": 4584,
  " animals": 4585,
  " react": 4586,
  "going": 4587,
  " novel": 4588,
  "ctors": 4589,
  "but": 4590,
  "ribute": 4591,
  "anted": 4592,
  " closed": 4593,
  " daughter": 4594,
  " driving": 4595,
  " Britain": 4596,
  " Sl": 4597,
  " contain": 4598,
  " entirely": 4599,
  " ded": 4600,
  " worst": 4601,
  "gency": 4602,
  "ady": 4603,
  " driver": 4604,
  " Wil": 4605,
  " disease": 4606,
  " telling": 4607,
  "iling": 4608,
  " smaller": 4609,
  " refere": 4610,
  " nor": 4611,
  " discovered": 4612,
  "Bl": 4613,
  "akistan": 4614,
  "Americ": 4615,
  "ius": 4616,
  " Los": 4617,
  " Pri": 4618,
  "hem": 4619,
  " hack": 4620,
  " Que": 4621,
  "equ": 4622,
  "!\u201d": 4623,
  "ference": 4624,
  " cash": 4625,
  " false": 4626,
  " concerned": 4627,
  "ulf": 4628,
  "\\u00e3\\u0082": 4629,
  " surface": 4630,
  "semb": 4631,
  " plays": 4632,
  "spe": 4633,
  " supported": 4634,
  "annel": 4635,
  "oyal": 4636,
  " transport": 4637,
  " tools": 4638,
  "ulated": 4639,
  " Chris": 4640,
  " compar": 4641,
  " experiment": 4642,
  "night": 4643,
  " finding": 4644,
  " categ": 4645,
  " businesses": 4646,
  " aspect": 4647,
  " UN": 4648,
  " 70": 4649,
  "azon": 4650,
  "ait": 4651,
  " farm": 4652,
  " please": 4653,
  " older": 4654,
  " gay": 4655,
  "CH": 4656,
  " activities": 4657,
  "ibrary": 4658,
  "phone": 4659,
  "how": 4660,
  " Jones": 4661,
  "do": 4662,
  " requires": 4663,
  " wel": 4664,
  " strength": 4665,
  "##": 4666,
  "andon": 4667,
  "55": 4668,
  "48": 4669,
  " insurance": 4670,
  " consequ": 4671,
  "37": 4672,
  " largely": 4673,
  " Israeli": 4674,
  "NN": 4675,
  " murder": 4676,
  " candidates": 4677,
  " exerc": 4678,
  "ici": 4679,
  " Ken": 4680,
  " caught": 4681,
  " allowing": 4682,
  " annual": 4683,
  "kins": 4684,
  " Tre": 4685,
  "icy": 4686,
  " blue": 4687,
  " testing": 4688,
  " Are": 4689,
  " Sup": 4690,
  "ossible": 4691,
  " strateg": 4692,
  " raise": 4693,
  "arant": 4694,
  "rick": 4695,
  " Robert": 4696,
  "overy": 4697,
  "izes": 4698,
  " stock": 4699,
  " decisions": 4700,
  " context": 4701,
  " fuel": 4702,
  " accur": 4703,
  "lor": 4704,
  " Ac": 4705,
  "SP": 4706,
  " Ukrain": 4707,
  "osure": 4708,
  " afford": 4709,
  " believes": 4710,
  " concern": 4711,
  " construction": 4712,
  " truly": 4713,
  "\u2014\u2014": 4714,
  "****": 4715,
  " Ty": 4716,
  "igrants": 4717,
  " Miss": 4718,
  " justice": 4719,
  " ge": 4720,
  " Jewish": 4721,
  " highlight": 4722,
  "!!": 4723,
  " generation": 4724,
  " unit": 4725,
  " presence": 4726,
  "rim": 4727,
  " Sil": 4728,
  "anging": 4729,
  " Africa": 4730,
  "\u0430": 4731,
  "tery": 4732,
  " Gree": 4733,
  " guess": 4734,
  "ception": 4735,
  " holding": 4736,
  "\u0435": 4737,
  "ancy": 4738,
  "itable": 4739,
  " witness": 4740,
  "bre": 4741,
  " establish": 4742,
  " planning": 4743,
  " refuge": 4744,
  " length": 4745,
  " African": 4746,
  " catch": 4747,
  "ava": 4748,
  " placed": 4749,
  " sequ": 4750,
  "cknow": 4751,
  " spokesman": 4752,
  " san": 4753,
  "\u2018": 4754,
  " Association": 4755,
  "nel": 4756,
  " tells": 4757,
  "ey": 4758,
  " Afghan": 4759,
  " scale": 4760,
  "inter": 4761,
  " tim": 4762,
  " rough": 4763,
  "olly": 4764,
  " Ver": 4765,
  " attend": 4766,
  " joined": 4767,
  " cells": 4768,
  " Pre": 4769,
  " mentioned": 4770,
  " interests": 4771,
  "pective": 4772,
  " Jim": 4773,
  " hasn": 4774,
  "More": 4775,
  " abuse": 4776,
  " PC": 4777,
  "Le": 4778,
  " initi": 4779,
  " enforcement": 4780,
  " Mer": 4781,
  " kid": 4782,
  " introduced": 4783,
  " deliver": 4784,
  " GOP": 4785,
  " conflict": 4786,
  "ros": 4787,
  " Microsoft": 4788,
  " update": 4789,
  " providing": 4790,
  " waiting": 4791,
  " missing": 4792,
  " cancer": 4793,
  " phil": 4794,
  "39": 4795,
  "ocracy": 4796,
  " recommend": 4797,
  " established": 4798,
  " eat": 4799,
  "isation": 4800,
  " Yes": 4801,
  " Jeff": 4802,
  " occup": 4803,
  " Angeles": 4804,
  " Frank": 4805,
  "bour": 4806,
  " removed": 4807,
  " Fore": 4808,
  " 2005": 4809,
  "ula": 4810,
  " injury": 4811,
  " offensive": 4812,
  "icon": 4813,
  " Instead": 4814,
  " sports": 4815,
  " discussion": 4816,
  " fant": 4817,
  " operation": 4818,
  "vant": 4819,
  " download": 4820,
  " newsp": 4821,
  "47": 4822,
  " homes": 4823,
  " conversation": 4824,
  " south": 4825,
  " cook": 4826,
  " CEO": 4827,
  "ronic": 4828,
  " useful": 4829,
  "onto": 4830,
  " assess": 4831,
  " Group": 4832,
  "formation": 4833,
  "itz": 4834,
  "lig": 4835,
  " banks": 4836,
  " Const": 4837,
  " stopped": 4838,
  " Step": 4839,
  " Kh": 4840,
  " measures": 4841,
  "ications": 4842,
  " obvious": 4843,
  " MP": 4844,
  " fourth": 4845,
  "season": 4846,
  "Our": 4847,
  " models": 4848,
  " Louis": 4849,
  "what": 4850,
  " bul": 4851,
  "DA": 4852,
  " 2018": 4853,
  " girls": 4854,
  "anda": 4855,
  " stick": 4856,
  " files": 4857,
  "cks": 4858,
  "azine": 4859,
  " managed": 4860,
  "iter": 4861,
  " Palestin": 4862,
  "umn": 4863,
  "apped": 4864,
  "mail": 4865,
  "oted": 4866,
  " Tim": 4867,
  " figures": 4868,
  "oms": 4869,
  " graph": 4870,
  " Leg": 4871,
  " identified": 4872,
  " finished": 4873,
  "real": 4874,
  "Pl": 4875,
  " Sal": 4876,
  " Jud": 4877,
  " setting": 4878,
  " funds": 4879,
  " Pakistan": 4880,
  " prefer": 4881,
  " conclud": 4882,
  " committed": 4883,
  " Mexico": 4884,
  " hair": 4885,
  "kin": 4886,
  " skills": 4887,
  " Rock": 4888,
  "49": 4889,
  " veter": 4890,
  " housing": 4891,
  " arrived": 4892,
  " focused": 4893,
  " appropri": 4894,
  " Virgin": 4895,
  " spirit": 4896,
  " keeping": 4897,
  " THE": 4898,
  " therefore": 4899,
  " acknow": 4900,
  " detect": 4901,
  "Des": 4902,
  " partner": 4903,
  " exclus": 4904,
  "ulate": 4905,
  "igan": 4906,
  " Android": 4907,
  "enses": 4908,
  "ups": 4909,
  " earth": 4910,
  " transl": 4911,
  " tough": 4912,
  "place": 4913,
  "outs": 4914,
  " Japanese": 4915,
  "\u00e1": 4916,
  " Supreme": 4917,
  " relatively": 4918,
  "wing": 4919,
  " 2000": 4920,
  "owl": 4921,
  " feels": 4922,
  " identity": 4923,
  "rd": 4924,
  " otherwise": 4925,
  " Met": 4926,
  "ocal": 4927,
  " survey": 4928,
  " Ryan": 4929,
  "RA": 4930,
  "itutional": 4931,
  "ication": 4932,
  " protection": 4933,
  "Trump": 4934,
  " owner": 4935,
  " exchange": 4936,
  " trip": 4937,
  "agn": 4938,
  " Inter": 4939,
  "isf": 4940,
  " steps": 4941,
  "imb": 4942,
  " Mont": 4943,
  " husband": 4944,
  " tweet": 4945,
  " Army": 4946,
  " slightly": 4947,
  " Prof": 4948,
  " connection": 4949,
  " weak": 4950,
  "eah": 4951,
  " Government": 4952,
  "ka": 4953,
  "\":": 4954,
  "verse": 4955,
  "ga": 4956,
  " click": 4957,
  " Richard": 4958,
  " elements": 4959,
  " circum": 4960,
  " strike": 4961,
  " photos": 4962,
  " mere": 4963,
  " defensive": 4964,
  "dden": 4965,
  "gar": 4966,
  " gain": 4967,
  " collection": 4968,
  " depend": 4969,
  " fle": 4970,
  "ucky": 4971,
  "hens": 4972,
  " killing": 4973,
  "ighter": 4974,
  "onym": 4975,
  " roll": 4976,
  "Go": 4977,
  " corner": 4978,
  "odies": 4979,
  " Martin": 4980,
  "with": 4981,
  " suggests": 4982,
  " dat": 4983,
  "prof": 4984,
  "ancing": 4985,
  "uct": 4986,
  " aggress": 4987,
  "Photo": 4988,
  " guard": 4989,
  "makers": 4990,
  " commission": 4991,
  " Although": 4992,
  "range": 4993,
  " gender": 4994,
  " College": 4995,
  " Team": 4996,
  " Sur": 4997,
  "46": 4998,
  " Ir": 4999,
  " mental": 5000,
  " amazing": 5001,
  " Dec": 5002,
  "rees": 5003,
  "icide": 5004,
  " Sub": 5005,
  " planet": 5006,
  "rency": 5007,
  "ym": 5008,
  "hi": 5009,
  " Jose": 5010,
  " Out": 5011,
  " bigger": 5012,
  "ania": 5013,
  " Nor": 5014,
  " supply": 5015,
  " failure": 5016,
  "Why": 5017,
  "gers": 5018,
  "hedul": 5019,
  " starts": 5020,
  "ils": 5021,
  " familiar": 5022,
  " remind": 5023,
  "iser": 5024,
  " sides": 5025,
  " spect": 5026,
  "uate": 5027,
  "gypt": 5028,
  "ano": 5029,
  " sust": 5030,
  " talks": 5031,
  "mas": 5032,
  " speaking": 5033,
  " happening": 5034,
  " organizations": 5035,
  " army": 5036,
  " Joe": 5037,
  " hate": 5038,
  " window": 5039,
  "uke": 5040,
  " taxes": 5041,
  " Good": 5042,
  " none": 5043,
  " planned": 5044,
  " Mary": 5045,
  " Pet": 5046,
  " thanks": 5047,
  " decide": 5048,
  " sudden": 5049,
  " pit": 5050,
  " struct": 5051,
  " wish": 5052,
  " crew": 5053,
  "awn": 5054,
  "lo": 5055,
  " carried": 5056,
  " appoint": 5057,
  "oston": 5058,
  " pet": 5059,
  "eless": 5060,
  "ynam": 5061,
  "agues": 5062,
  "TC": 5063,
  " helping": 5064,
  "idering": 5065,
  "Last": 5066,
  " regist": 5067,
  " multi": 5068,
  " award": 5069,
  " 32": 5070,
  " standards": 5071,
  "ola": 5072,
  " Fire": 5073,
  " revolution": 5074,
  " environmental": 5075,
  " Thomas": 5076,
  "run": 5077,
  "arsh": 5078,
  "pm": 5079,
  "olit": 5080,
  " Web": 5081,
  " Research": 5082,
  " script": 5083,
  "].": 5084,
  " immigration": 5085,
  " seconds": 5086,
  " 45": 5087,
  " Bern": 5088,
  "gn": 5089,
  " scientific": 5090,
  " Their": 5091,
  " que": 5092,
  "ocol": 5093,
  " standing": 5094,
  "stream": 5095,
  " domestic": 5096,
  " beer": 5097,
  "adium": 5098,
  "uters": 5099,
  " pair": 5100,
  "imal": 5101,
  " Also": 5102,
  " Secretary": 5103,
  " Us": 5104,
  " cold": 5105,
  " academ": 5106,
  " markets": 5107,
  " variety": 5108,
  "HL": 5109,
  "fe": 5110,
  " dropped": 5111,
  " territ": 5112,
  " accounts": 5113,
  " sch": 5114,
  " Atlant": 5115,
  " filed": 5116,
  "!\"": 5117,
  "erous": 5118,
  "acks": 5119,
  "illa": 5120,
  " balance": 5121,
  " impossible": 5122,
  " interact": 5123,
  " neighborhood": 5124,
  " Ter": 5125,
  "Read": 5126,
  "aven": 5127,
  " degree": 5128,
  " turns": 5129,
  "ores": 5130,
  "itect": 5131,
  " possibly": 5132,
  " appre": 5133,
  " operating": 5134,
  " princ": 5135,
  " alternative": 5136,
  " votes": 5137,
  " union": 5138,
  " professor": 5139,
  " vul": 5140,
  "ader": 5141,
  " increasingly": 5142,
  " Service": 5143,
  " apply": 5144,
  " fellow": 5145,
  "ruit": 5146,
  " tack": 5147,
  "ayer": 5148,
  " cuts": 5149,
  " Prime": 5150,
  " honest": 5151,
  "stein": 5152,
  " developers": 5153,
  " univers": 5154,
  "arks": 5155,
  "aren": 5156,
  " apparently": 5157,
  "abb": 5158,
  "vis": 5159,
  " server": 5160,
  " Syrian": 5161,
  " lived": 5162,
  " changing": 5163,
  " worry": 5164,
  "rastructure": 5165,
  " tests": 5166,
  " Carolina": 5167,
  " rich": 5168,
  " units": 5169,
  " Two": 5170,
  "From": 5171,
  "cious": 5172,
  "icted": 5173,
  " humans": 5174,
  " Foundation": 5175,
  "aded": 5176,
  "IM": 5177,
  " Mos": 5178,
  " agencies": 5179,
  "\\u00e3\\u0083": 5180,
  " sounds": 5181,
  "ashed": 5182,
  "obby": 5183,
  " twice": 5184,
  " soldiers": 5185,
  " Images": 5186,
  " ultimately": 5187,
  " animal": 5188,
  " authority": 5189,
  " losing": 5190,
  "gu": 5191,
  " schedul": 5192,
  " settle": 5193,
  " healthy": 5194,
  " ath": 5195,
  " corporate": 5196,
  " philos": 5197,
  " paying": 5198,
  " absolutely": 5199,
  " colle": 5200,
  " mut": 5201,
  "och": 5202,
  " equip": 5203,
  " developing": 5204,
  " sea": 5205,
  " closer": 5206,
  " Time": 5207,
  "iams": 5208,
  " innov": 5209,
  " Den": 5210,
  " skin": 5211,
  "related": 5212,
  "ansion": 5213,
  " seeking": 5214,
  " regarding": 5215,
  "roud": 5216,
  " expensive": 5217,
  "coh": 5218,
  " apart": 5219,
  " beautiful": 5220,
  " possibility": 5221,
  "65": 5222,
  " Central": 5223,
  " fundament": 5224,
  " writer": 5225,
  " religion": 5226,
  " experts": 5227,
  " vast": 5228,
  " yards": 5229,
  " flight": 5230,
  " solar": 5231,
  " District": 5232,
  " deploy": 5233,
  " Last": 5234,
  "Of": 5235,
  " adjust": 5236,
  " internal": 5237,
  " Under": 5238,
  "31": 5239,
  " tast": 5240,
  "apers": 5241,
  " Peter": 5242,
  " Lat": 5243,
  " imagine": 5244,
  " Jon": 5245,
  "IV": 5246,
  "ologies": 5247,
  " applications": 5248,
  " Francisco": 5249,
  "iot": 5250,
  "state": 5251,
  "look": 5252,
  " Toronto": 5253,
  " vision": 5254,
  "osen": 5255,
  " Plan": 5256,
  " sitting": 5257,
  "den": 5258,
  " trail": 5259,
  " unless": 5260,
  " USA": 5261,
  "isted": 5262,
  " Jes": 5263,
  "Even": 5264,
  " heat": 5265,
  " responsibility": 5266,
  " 2004": 5267,
  " Middle": 5268,
  "atures": 5269,
  " capacity": 5270,
  "aine": 5271,
  "IP": 5272,
  "ias": 5273,
  " fol": 5274,
  " error": 5275,
  " symb": 5276,
  " pil": 5277,
  " arms": 5278,
  " covered": 5279,
  "pire": 5280,
  " gar": 5281,
  " famous": 5282,
  "idden": 5283,
  " Bur": 5284,
  " Camp": 5285,
  " forms": 5286,
  "ND": 5287,
  " university": 5288,
  " tight": 5289,
  "uzz": 5290,
  "ortion": 5291,
  " guarant": 5292,
  " Egypt": 5293,
  " ST": 5294,
  "enced": 5295,
  " presented": 5296,
  "oving": 5297,
  " Put": 5298,
  " earn": 5299,
  " convention": 5300,
  "under": 5301,
  "Just": 5302,
  " Public": 5303,
  " elections": 5304,
  " surprise": 5305,
  " attorney": 5306,
  " fif": 5307,
  " estimated": 5308,
  " Amazon": 5309,
  " Ari": 5310,
  " vehicles": 5311,
  " teen": 5312,
  " instit": 5313,
  " intended": 5314,
  "rible": 5315,
  "person": 5316,
  "road": 5317,
  " odd": 5318,
  " streets": 5319,
  " helps": 5320,
  " rid": 5321,
  " occurred": 5322,
  "sen": 5323,
  "uster": 5324,
  "hand": 5325,
  " Boston": 5326,
  " Mur": 5327,
  " Sol": 5328,
  "ini": 5329,
  "=\"": 5330,
  " sport": 5331,
  "ressive": 5332,
  " determine": 5333,
  " expert": 5334,
  " Bitcoin": 5335,
  "alls": 5336,
  " consult": 5337,
  "uration": 5338,
  "Let": 5339,
  " broken": 5340,
  " ton": 5341,
  "lets": 5342,
  " domin": 5343,
  " =>": 5344,
  " fired": 5345,
  " Gal": 5346,
  "----------------": 5347,
  " flow": 5348,
  "porary": 5349,
  "eder": 5350,
  "LE": 5351,
  " reserv": 5352,
  " troops": 5353,
  "Up": 5354,
  " shall": 5355,
  " Those": 5356,
  "ION": 5357,
  "terday": 5358,
  " nar": 5359,
  " hyp": 5360,
  " pieces": 5361,
  " prepared": 5362,
  " Chief": 5363,
  " Mass": 5364,
  " Jo": 5365,
  "orage": 5366,
  " rapid": 5367,
  " Cath": 5368,
  " Social": 5369,
  " located": 5370,
  "gl": 5371,
  " baby": 5372,
  " conclus": 5373,
  "anche": 5374,
  " bringing": 5375,
  " prove": 5376,
  " specifically": 5377,
  " Prot": 5378,
  " jail": 5379,
  " potentially": 5380,
  " Any": 5381,
  "OW": 5382,
  " sector": 5383,
  " governments": 5384,
  " Once": 5385,
  "Ab": 5386,
  " random": 5387,
  " scr": 5388,
  " selling": 5389,
  "war": 5390,
  " equal": 5391,
  " heav": 5392,
  " faster": 5393,
  "useum": 5394,
  "class": 5395,
  "TH": 5396,
  " Spr": 5397,
  " boost": 5398,
  " proposal": 5399,
  "vey": 5400,
  " council": 5401,
  " equipment": 5402,
  " plenty": 5403,
  " clin": 5404,
  "Do": 5405,
  " factors": 5406,
  "oty": 5407,
  " Rub": 5408,
  " stars": 5409,
  " era": 5410,
  " infrastructure": 5411,
  " stress": 5412,
  " Virginia": 5413,
  "phas": 5414,
  "endment": 5415,
  " Journal": 5416,
  " breat": 5417,
  " prosecut": 5418,
  " voted": 5419,
  " carbon": 5420,
  "()": 5421,
  " offering": 5422,
  " expressed": 5423,
  "inent": 5424,
  " Paris": 5425,
  " clot": 5426,
  " combat": 5427,
  " broke": 5428,
  "ureau": 5429,
  " vulner": 5430,
  " retail": 5431,
  "anish": 5432,
  " ruling": 5433,
  "ours": 5434,
  " Guard": 5435,
  " dram": 5436,
  " elected": 5437,
  " Federal": 5438,
  " refused": 5439,
  "cean": 5440,
  " River": 5441,
  "Every": 5442,
  " secure": 5443,
  " seasons": 5444,
  ",'": 5445,
  " conducted": 5446,
  " Open": 5447,
  "ht": 5448,
  " challenges": 5449,
  " Sant": 5450,
  "isher": 5451,
  " remove": 5452,
  "noon": 5453,
  " pointed": 5454,
  " Island": 5455,
  " din": 5456,
  " prime": 5457,
  " methods": 5458,
  " weapon": 5459,
  " remained": 5460,
  " master": 5461,
  " Australian": 5462,
  "ENT": 5463,
  " trig": 5464,
  " Cru": 5465,
  " Medic": 5466,
  "First": 5467,
  " Mel": 5468,
  " criticism": 5469,
  " positions": 5470,
  "ipping": 5471,
  "ocking": 5472,
  " Please": 5473,
  "onom": 5474,
  " sale": 5475,
  "rog": 5476,
  "IG": 5477,
  " weren": 5478,
  "olved": 5479,
  " cultural": 5480,
  "that": 5481,
  " Fe": 5482,
  " brow": 5483,
  " originally": 5484,
  "rie": 5485,
  " significantly": 5486,
  " affected": 5487,
  "etic": 5488,
  " appearance": 5489,
  " cas": 5490,
  " During": 5491,
  " finish": 5492,
  " facing": 5493,
  " Lee": 5494,
  " youth": 5495,
  " tourn": 5496,
  " greatest": 5497,
  " stret": 5498,
  " tele": 5499,
  " Who": 5500,
  "yr": 5501,
  " Cur": 5502,
  " Photo": 5503,
  " involve": 5504,
  " determined": 5505,
  "cel": 5506,
  "\u0438": 5507,
  " percentage": 5508,
  "col": 5509,
  " thank": 5510,
  " signs": 5511,
  "95": 5512,
  "lyn": 5513,
  " 500": 5514,
  "64": 5515,
  " bought": 5516,
  " vir": 5517,
  "standing": 5518,
  " shape": 5519,
  " chemical": 5520,
  "ashion": 5521,
  " regime": 5522,
  " Sing": 5523,
  " grew": 5524,
  "pired": 5525,
  " remaining": 5526,
  " Steve": 5527,
  " Saud": 5528,
  "lymp": 5529,
  "reens": 5530,
  " indeed": 5531,
  " dream": 5532,
  "rier": 5533,
  "Since": 5534,
  "Sp": 5535,
  " minimum": 5536,
  " marg": 5537,
  " Both": 5538,
  " voting": 5539,
  " mode": 5540,
  " herself": 5541,
  " Color": 5542,
  " Force": 5543,
  " obviously": 5544,
  "ordin": 5545,
  " Nov": 5546,
  " recorded": 5547,
  " Ro": 5548,
  " reduced": 5549,
  " wood": 5550,
  " Rem": 5551,
  " revenue": 5552,
  " 1990": 5553,
  " wearing": 5554,
  " tact": 5555,
  " argued": 5556,
  "ighters": 5557,
  ">>": 5558,
  "edia": 5559,
  " leads": 5560,
  "aling": 5561,
  " hun": 5562,
  " plus": 5563,
  " politicians": 5564,
  " thr": 5565,
  " switch": 5566,
  " contrast": 5567,
  " purchase": 5568,
  " handle": 5569,
  " concent": 5570,
  " subs": 5571,
  " proced": 5572,
  " agent": 5573,
  " appreci": 5574,
  "arp": 5575,
  "\u0442": 5576,
  " hurt": 5577,
  " Williams": 5578,
  " experienced": 5579,
  " excited": 5580,
  " supporting": 5581,
  " videos": 5582,
  " https": 5583,
  " Free": 5584,
  "cohol": 5585,
  "mm": 5586,
  " Haw": 5587,
  "ownt": 5588,
  "DP": 5589,
  "top": 5590,
  " surprising": 5591,
  " minute": 5592,
  "odd": 5593,
  " aircraft": 5594,
  " considering": 5595,
  " belong": 5596,
  " identify": 5597,
  " explos": 5598,
  " consumers": 5599,
  " rent": 5600,
  " Pac": 5601,
  "ller": 5602,
  " Book": 5603,
  "apter": 5604,
  " aid": 5605,
  " pulled": 5606,
  "ogue": 5607,
  " basically": 5608,
  " Conserv": 5609,
  "gment": 5610,
  "CL": 5611,
  " glass": 5612,
  " differences": 5613,
  " afternoon": 5614,
  " depart": 5615,
  " films": 5616,
  " Rad": 5617,
  " diss": 5618,
  " shift": 5619,
  " turning": 5620,
  " ends": 5621,
  "essions": 5622,
  " spring": 5623,
  " prospect": 5624,
  " bound": 5625,
  "ruption": 5626,
  "ket": 5627,
  " Charl": 5628,
  " accident": 5629,
  "05": 5630,
  " mort": 5631,
  "hab": 5632,
  " treated": 5633,
  " motiv": 5634,
  "01": 5635,
  "life": 5636,
  " listen": 5637,
  " seat": 5638,
  " seriously": 5639,
  ",[": 5640,
  "Ind": 5641,
  "uts": 5642,
  " construct": 5643,
  " combined": 5644,
  " Power": 5645,
  "apping": 5646,
  " evening": 5647,
  " privacy": 5648,
  "hered": 5649,
  " panel": 5650,
  " opportunities": 5651,
  "hy": 5652,
  "asp": 5653,
  " struggle": 5654,
  " 195": 5655,
  " completed": 5656,
  "His": 5657,
  " Daily": 5658,
  " enemy": 5659,
  " talked": 5660,
  " lots": 5661,
  " visual": 5662,
  "Phone": 5663,
  " cart": 5664,
  " hopes": 5665,
  " passing": 5666,
  "pet": 5667,
  "oral": 5668,
  "osite": 5669,
  " id": 5670,
  " apps": 5671,
  "PD": 5672,
  "Another": 5673,
  " emergency": 5674,
  " calcul": 5675,
  "ensions": 5676,
  " widely": 5677,
  " Show": 5678,
  "amm": 5679,
  " suit": 5680,
  " Hol": 5681,
  " ast": 5682,
  " element": 5683,
  "ucks": 5684,
  "anged": 5685,
  "aled": 5686,
  " Rel": 5687,
  " powers": 5688,
  " BBC": 5689,
  "SS": 5690,
  " Olymp": 5691,
  "ato": 5692,
  "Pe": 5693,
  " burn": 5694,
  "TV": 5695,
  " plants": 5696,
  " Space": 5697,
  " flat": 5698,
  " discl": 5699,
  " liberal": 5700,
  "obe": 5701,
  " opposed": 5702,
  "raud": 5703,
  "Well": 5704,
  " copyright": 5705,
  "ompl": 5706,
  "oking": 5707,
  " proceed": 5708,
  " Project": 5709,
  " advance": 5710,
  " factor": 5711,
  " distance": 5712,
  "ivered": 5713,
  " 2003": 5714,
  "plom": 5715,
  " dismiss": 5716,
  " tun": 5717,
  " attempts": 5718,
  " Matt": 5719,
  " Road": 5720,
  "Am": 5721,
  " collabor": 5722,
  " hol": 5723,
  " trouble": 5724,
  "ributed": 5725,
  "unction": 5726,
  " IN": 5727,
  "ita": 5728,
  "sts": 5729,
  "abilities": 5730,
  " Bet": 5731,
  "idel": 5732,
  "Cont": 5733,
  " zone": 5734,
  " default": 5735,
  "rawn": 5736,
  " upgr": 5737,
  " Jackson": 5738,
  " Mem": 5739,
  " reporters": 5740,
  " reaction": 5741,
  " frust": 5742,
  "adow": 5743,
  "nell": 5744,
  "PR": 5745,
  " storm": 5746,
  "mosp": 5747,
  "lines": 5748,
  " writes": 5749,
  "mond": 5750,
  " Today": 5751,
  "aints": 5752,
  " pages": 5753,
  " typically": 5754,
  "eds": 5755,
  "UT": 5756,
  " instruct": 5757,
  "respond": 5758,
  " bodies": 5759,
  "ternal": 5760,
  " package": 5761,
  " reference": 5762,
  "zer": 5763,
  "free": 5764,
  " matters": 5765,
  "care": 5766,
  "42": 5767,
  "App": 5768,
  " denied": 5769,
  "edd": 5770,
  " disappoint": 5771,
  " quant": 5772,
  " explo": 5773,
  " sem": 5774,
  " NAS": 5775,
  " optim": 5776,
  " quiet": 5777,
  " entertain": 5778,
  "ache": 5779,
  " responded": 5780,
  " approved": 5781,
  " Turkey": 5782,
  "aped": 5783,
  " mal": 5784,
  " broadcast": 5785,
  "esters": 5786,
  " satisf": 5787,
  " advert": 5788,
  " institutions": 5789,
  " stands": 5790,
  " Director": 5791,
  "\u00e4": 5792,
  "estival": 5793,
  " sets": 5794,
  "isters": 5795,
  " elimin": 5796,
  " Penn": 5797,
  "razy": 5798,
  "elly": 5799,
  " Ohio": 5800,
  " split": 5801,
  "Rep": 5802,
  " renew": 5803,
  " valid": 5804,
  " William": 5805,
  " //": 5806,
  " sac": 5807,
  " severe": 5808,
  "host": 5809,
  "abin": 5810,
  " capable": 5811,
  " caption": 5812,
  " pitch": 5813,
  " 2001": 5814,
  " giant": 5815,
  "aniel": 5816,
  " technical": 5817,
  " loved": 5818,
  " cann": 5819,
  " cloud": 5820,
  "pass": 5821,
  "rant": 5822,
  " tradition": 5823,
  " prompt": 5824,
  " bull": 5825,
  " confidence": 5826,
  " confident": 5827,
  "uous": 5828,
  " numerous": 5829,
  " reportedly": 5830,
  "0000": 5831,
  "rid": 5832,
  "writ": 5833,
  " faces": 5834,
  " Ma": 5835,
  " weather": 5836,
  " fly": 5837,
  "],": 5838,
  " Squ": 5839,
  " transition": 5840,
  " 36": 5841,
  " gra": 5842,
  " System": 5843,
  " Afghanistan": 5844,
  " creation": 5845,
  " perspective": 5846,
  "De": 5847,
  " \\": 5848,
  " forget": 5849,
  " unable": 5850,
  " Yet": 5851,
  " Media": 5852,
  "employ": 5853,
  "II": 5854,
  "unte": 5855,
  "angers": 5856,
  "astern": 5857,
  " Labour": 5858,
  "oken": 5859,
  "43": 5860,
  " suffered": 5861,
  "ampion": 5862,
  "ilit": 5863,
  " cooper": 5864,
  " substant": 5865,
  " craft": 5866,
  " coast": 5867,
  " violent": 5868,
  " pictures": 5869,
  " coff": 5870,
  " mand": 5871,
  " experiences": 5872,
  " approx": 5873,
  "sex": 5874,
  " flag": 5875,
  " route": 5876,
  "abled": 5877,
  " Andrew": 5878,
  " ordered": 5879,
  "usiness": 5880,
  "88": 5881,
  "razil": 5882,
  " advice": 5883,
  " crimes": 5884,
  " declared": 5885,
  " Wal": 5886,
  " reporting": 5887,
  " Human": 5888,
  " proud": 5889,
  "Se": 5890,
  "ishes": 5891,
  " messages": 5892,
  " eval": 5893,
  "Res": 5894,
  " circumst": 5895,
  " excell": 5896,
  "Over": 5897,
  " findings": 5898,
  "ulations": 5899,
  " Lin": 5900,
  " explains": 5901,
  " delay": 5902,
  " newspaper": 5903,
  " declined": 5904,
  "evin": 5905,
  " Follow": 5906,
  " connected": 5907,
  " shouldn": 5908,
  "ilty": 5909,
  "ounded": 5910,
  " ongoing": 5911,
  "oves": 5912,
  " movies": 5913,
  "can": 5914,
  "dule": 5915,
  " picked": 5916,
  "ionally": 5917,
  " admitted": 5918,
  "resents": 5919,
  " delivered": 5920,
  "77": 5921,
  " guns": 5922,
  "During": 5923,
  " ML": 5924,
  " Scot": 5925,
  " walking": 5926,
  " agents": 5927,
  "called": 5928,
  " prin": 5929,
  " editor": 5930,
  " thoughts": 5931,
  " married": 5932,
  "tion": 5933,
  " Tra": 5934,
  " architect": 5935,
  " appropriate": 5936,
  " auth": 5937,
  " emails": 5938,
  "uations": 5939,
  " emphas": 5940,
  " Grand": 5941,
  " leaves": 5942,
  " accompl": 5943,
  " gather": 5944,
  " Wood": 5945,
  " edge": 5946,
  " updates": 5947,
  " forg": 5948,
  "ansas": 5949,
  " quarterback": 5950,
  "OD": 5951,
  "41": 5952,
  " session": 5953,
  " Muslims": 5954,
  "ooth": 5955,
  " Techn": 5956,
  " Science": 5957,
  " injured": 5958,
  "cos": 5959,
  "arn": 5960,
  " pool": 5961,
  " publicly": 5962,
  "ellow": 5963,
  " perman": 5964,
  " statements": 5965,
  " legit": 5966,
  "arl": 5967,
  " drivers": 5968,
  " ourselves": 5969,
  " confirm": 5970,
  " Sov": 5971,
  "nergy": 5972,
  " rot": 5973,
  "Other": 5974,
  "MA": 5975,
  " realize": 5976,
  " Lake": 5977,
  " Av": 5978,
  "TA": 5979,
  " Dou": 5980,
  "mates": 5981,
  ",\u2019": 5982,
  " armed": 5983,
  " dial": 5984,
  "essor": 5985,
  " lawyer": 5986,
  "cons": 5987,
  " rail": 5988,
  "ourney": 5989,
  " readers": 5990,
  "reland": 5991,
  " sad": 5992,
  " contains": 5993,
  " talent": 5994,
  " argue": 5995,
  " Ron": 5996,
  " Christmas": 5997,
  " Sum": 5998,
  " activists": 5999,
  " allegations": 6000,
  " Rev": 6001,
  " filled": 6002,
  " crack": 6003,
  " dynam": 6004,
  " Michigan": 6005,
  " Back": 6006,
  " 1980": 6007,
  " transform": 6008,
  "Many": 6009,
  " Ill": 6010,
  "date": 6011,
  " buildings": 6012,
  " wear": 6013,
  " Read": 6014,
  "Tube": 6015,
  "long": 6016,
  " terrorist": 6017,
  " sam": 6018,
  " label": 6019,
  "ala": 6020,
  "enda": 6021,
  " exercise": 6022,
  " tree": 6023,
  " effectively": 6024,
  "Oh": 6025,
  " shop": 6026,
  " practices": 6027,
  " Jul": 6028,
  "ette": 6029,
  " Sher": 6030,
  " Hy": 6031,
  " subsequ": 6032,
  "uls": 6033,
  "TS": 6034,
  "enture": 6035,
  " Gen": 6036,
  " patient": 6037,
  " examples": 6038,
  " flo": 6039,
  " fish": 6040,
  " Seattle": 6041,
  "gia": 6042,
  " rain": 6043,
  " tech": 6044,
  " secretary": 6045,
  " objects": 6046,
  " missed": 6047,
  " Rod": 6048,
  " See": 6049,
  "asure": 6050,
  " debut": 6051,
  " causes": 6052,
  "illy": 6053,
  " essentially": 6054,
  "rum": 6055,
  " centre": 6056,
  "word": 6057,
  " Ukraine": 6058,
  "amin": 6059,
  "ador": 6060,
  "orders": 6061,
  "Follow": 6062,
  "arters": 6063,
  "66": 6064,
  " Vict": 6065,
  " Work": 6066,
  "bur": 6067,
  " moral": 6068,
  "def": 6069,
  " injuries": 6070,
  " motor": 6071,
  "icing": 6072,
  "acter": 6073,
  " Stan": 6074,
  " Phot": 6075,
  " artist": 6076,
  " iPhone": 6077,
  " ID": 6078,
  " bond": 6079,
  " client": 6080,
  "aza": 6081,
  " thinks": 6082,
  "iat": 6083,
  " Saudi": 6084,
  "ouston": 6085,
  "Although": 6086,
  "orse": 6087,
  "agers": 6088,
  " desire": 6089,
  " facts": 6090,
  " pure": 6091,
  " hell": 6092,
  " ske": 6093,
  " linked": 6094,
  "\\u0082\\u00ac": 6095,
  " governor": 6096,
  "orry": 6097,
  "\u00ed": 6098,
  " performed": 6099,
  " materials": 6100,
  "Spe": 6101,
  "iest": 6102,
  " franch": 6103,
  " initially": 6104,
  " suc": 6105,
  " Bat": 6106,
  "esome": 6107,
  " necessarily": 6108,
  " Sign": 6109,
  " expansion": 6110,
  "water": 6111,
  " philosoph": 6112,
  " scheduled": 6113,
  " Fer": 6114,
  " warned": 6115,
  " diplom": 6116,
  "ERS": 6117,
  " advanced": 6118,
  " ing": 6119,
  " explan": 6120,
  " everybody": 6121,
  " resolution": 6122,
  " joint": 6123,
  " van": 6124,
  "Yes": 6125,
  " decre": 6126,
  "enger": 6127,
  " myster": 6128,
  " increases": 6129,
  " accepted": 6130,
  " faced": 6131,
  " vari": 6132,
  " incor": 6133,
  " bare": 6134,
  "illance": 6135,
  " announcement": 6136,
  " playoff": 6137,
  " nations": 6138,
  " Mount": 6139,
  " follows": 6140,
  " datab": 6141,
  " Second": 6142,
  " yesterday": 6143,
  " radical": 6144,
  " abandon": 6145,
  " athlet": 6146,
  " Life": 6147,
  " neither": 6148,
  " nearby": 6149,
  "gent": 6150,
  "rich": 6151,
  " distribution": 6152,
  "otic": 6153,
  "Most": 6154,
  " applied": 6155,
  "athan": 6156,
  " consequences": 6157,
  "irty": 6158,
  " magazine": 6159,
  " fort": 6160,
  " mir": 6161,
  " doctor": 6162,
  " listed": 6163,
  "American": 6164,
  " atmosp": 6165,
  " surprised": 6166,
  " Columb": 6167,
  "uy": 6168,
  " offense": 6169,
  " CNN": 6170,
  " spons": 6171,
  "itors": 6172,
  "Qu": 6173,
  " Jews": 6174,
  " RE": 6175,
  "sembly": 6176,
  " begins": 6177,
  " threats": 6178,
  " Dan": 6179,
  " Week": 6180,
  " Aff": 6181,
  " represents": 6182,
  " moves": 6183,
  " GM": 6184,
  " enh": 6185,
  " remark": 6186,
  " TO": 6187,
  "kay": 6188,
  " songs": 6189,
  " pra": 6190,
  " chart": 6191,
  "omin": 6192,
  " behavi": 6193,
  " adds": 6194,
  "law": 6195,
  " ride": 6196,
  " withd": 6197,
  "Can": 6198,
  " Blue": 6199,
  "rip": 6200,
  " output": 6201,
  " improved": 6202,
  " warm": 6203,
  " bot": 6204,
  " phen": 6205,
  " AT": 6206,
  " flood": 6207,
  " Hen": 6208,
  " alcohol": 6209,
  " af": 6210,
  "edy": 6211,
  " fill": 6212,
  " Develop": 6213,
  "whel": 6214,
  " shots": 6215,
  " Kim": 6216,
  " pushed": 6217,
  " alt": 6218,
  " stood": 6219,
  " brings": 6220,
  " guilty": 6221,
  "ocratic": 6222,
  " Vol": 6223,
  " subscrib": 6224,
  " entry": 6225,
  " Romney": 6226,
  " Swed": 6227,
  "85": 6228,
  " NBA": 6229,
  " 33": 6230,
  " Brazil": 6231,
  " row": 6232,
  " manufacture": 6233,
  " democracy": 6234,
  " config": 6235,
  " boys": 6236,
  "\u00c2": 6237,
  " restaurant": 6238,
  " lawsuit": 6239,
  "acle": 6240,
  " trib": 6241,
  " receiving": 6242,
  " Dev": 6243,
  "Then": 6244,
  " Ireland": 6245,
  " rising": 6246,
  " Barack": 6247,
  " rein": 6248,
  " entered": 6249,
  " discussed": 6250,
  " ISIS": 6251,
  " Board": 6252,
  " totally": 6253,
  " Only": 6254,
  " sought": 6255,
  "twitter": 6256,
  " historical": 6257,
  " consistent": 6258,
  "ideo": 6259,
  " plane": 6260,
  " storage": 6261,
  " correspond": 6262,
  " scored": 6263,
  " input": 6264,
  " combination": 6265,
  " bright": 6266,
  " 300": 6267,
  " symbol": 6268,
  "stood": 6269,
  " succeed": 6270,
  "irds": 6271,
  " articles": 6272,
  " button": 6273,
  " creative": 6274,
  " 2002": 6275,
  " networks": 6276,
  "mes": 6277,
  " unlikely": 6278,
  " square": 6279,
  " investors": 6280,
  " deaths": 6281,
  " island": 6282,
  " heads": 6283,
  " boss": 6284,
  " classes": 6285,
  " functions": 6286,
  "alty": 6287,
  " lie": 6288,
  "ician": 6289,
  "icious": 6290,
  " consumer": 6291,
  " roughly": 6292,
  " native": 6293,
  " sav": 6294,
  " Str": 6295,
  " Lib": 6296,
  " Prem": 6297,
  "fortunately": 6298,
  " Walk": 6299,
  " Whe": 6300,
  " heavily": 6301,
  " Ms": 6302,
  " fairly": 6303,
  " string": 6304,
  " Maybe": 6305,
  " Another": 6306,
  " Its": 6307,
  " temperature": 6308,
  " plot": 6309,
  " Asia": 6310,
  " existence": 6311,
  "arden": 6312,
  " kit": 6313,
  " contest": 6314,
  " targets": 6315,
  "Add": 6316,
  "issions": 6317,
  " Cub": 6318,
  "usal": 6319,
  "dis": 6320,
  " Bob": 6321,
  " resident": 6322,
  " lock": 6323,
  " Korean": 6324,
  "ican": 6325,
  " resc": 6326,
  " protests": 6327,
  " younger": 6328,
  "duc": 6329,
  "',": 6330,
  " colleagues": 6331,
  "\u00f6": 6332,
  " rally": 6333,
  "Man": 6334,
  "PU": 6335,
  " parliament": 6336,
  " anywhere": 6337,
  " library": 6338,
  "oked": 6339,
  " Sports": 6340,
  " Sky": 6341,
  " stores": 6342,
  " breaking": 6343,
  " bike": 6344,
  "zona": 6345,
  " buying": 6346,
  " warning": 6347,
  " grab": 6348,
  " blow": 6349,
  " waste": 6350,
  "ii": 6351,
  " manage": 6352,
  " sym": 6353,
  " chain": 6354,
  " expression": 6355,
  " importance": 6356,
  " prohib": 6357,
  " illust": 6358,
  " adults": 6359,
  " defined": 6360,
  " classic": 6361,
  " cere": 6362,
  "See": 6363,
  "Ob": 6364,
  " marketing": 6365,
  " Each": 6366,
  " snow": 6367,
  " links": 6368,
  " tow": 6369,
  "born": 6370,
  "andal": 6371,
  "\u00f3": 6372,
  " Club": 6373,
  " shif": 6374,
  "iques": 6375,
  " fraud": 6376,
  " Hist": 6377,
  "OC": 6378,
  " facility": 6379,
  " allegedly": 6380,
  " 37": 6381,
  "ollywood": 6382,
  "erences": 6383,
  " regulations": 6384,
  " doctors": 6385,
  " currency": 6386,
  " schol": 6387,
  " hardware": 6388,
  " Colorado": 6389,
  " bon": 6390,
  " replaced": 6391,
  "agan": 6392,
  "pret": 6393,
  " household": 6394,
  "onna": 6395,
  " essential": 6396,
  " empt": 6397,
  "opy": 6398,
  " somewhat": 6399,
  "power": 6400,
  " Ram": 6401,
  " DC": 6402,
  " Rights": 6403,
  " nav": 6404,
  "Pol": 6405,
  " Div": 6406,
  "press": 6407,
  " laugh": 6408,
  " promise": 6409,
  " Boy": 6410,
  " favour": 6411,
  "ena": 6412,
  "86": 6413,
  " holds": 6414,
  "ocket": 6415,
  "\u0441": 6416,
  " opposite": 6417,
  "west": 6418,
  " moments": 6419,
  " hat": 6420,
  "tering": 6421,
  "cho": 6422,
  " Far": 6423,
  " opponent": 6424,
  " bug": 6425,
  " rum": 6426,
  " acts": 6427,
  " campus": 6428,
  "hips": 6429,
  "etroit": 6430,
  " versions": 6431,
  " bag": 6432,
  "ometimes": 6433,
  " evolution": 6434,
  " vice": 6435,
  " relevant": 6436,
  " motion": 6437,
  " sees": 6438,
  " metal": 6439,
  " industrial": 6440,
  " Image": 6441,
  "IR": 6442,
  " Ann": 6443,
  " downt": 6444,
  " sick": 6445,
  "oma": 6446,
  " closely": 6447,
  "hetic": 6448,
  " zero": 6449,
  "chen": 6450,
  " emotional": 6451,
  " Year": 6452,
  "va": 6453,
  " fewer": 6454,
  "IF": 6455,
  "game": 6456,
  " YouTube": 6457,
  "olve": 6458,
  " adm": 6459,
  " tom": 6460,
  "Donald": 6461,
  " division": 6462,
  " customer": 6463,
  "ologist": 6464,
  " hoping": 6465,
  " Brook": 6466,
  " harder": 6467,
  " Valley": 6468,
  "En": 6469,
  "ittle": 6470,
  " hur": 6471,
  " mechanism": 6472,
  " Gra": 6473,
  " Houston": 6474,
  "atell": 6475,
  " volunte": 6476,
  "inem": 6477,
  " Elect": 6478,
  "ml": 6479,
  " returns": 6480,
  "NC": 6481,
  " participants": 6482,
  "po": 6483,
  " extent": 6484,
  " intention": 6485,
  "alian": 6486,
  " excellent": 6487,
  "ulous": 6488,
  " acknowled": 6489,
  " squad": 6490,
  "ellect": 6491,
  "esc": 6492,
  "oming": 6493,
  " batt": 6494,
  " syn": 6495,
  "pan": 6496,
  " Games": 6497,
  " Mot": 6498,
  " Soviet": 6499,
  "greg": 6500,
  " isol": 6501,
  " fashion": 6502,
  " circumstances": 6503,
  " immediate": 6504,
  " Eric": 6505,
  " suffering": 6506,
  " tiny": 6507,
  " Watch": 6508,
  "str": 6509,
  " lies": 6510,
  "otal": 6511,
  "\u00fc": 6512,
  " 38": 6513,
  " authors": 6514,
  " grown": 6515,
  "efully": 6516,
  "print": 6517,
  " 49": 6518,
  " immigrants": 6519,
  "iger": 6520,
  " Gar": 6521,
  " Hel": 6522,
  "utch": 6523,
  "ora": 6524,
  " kinds": 6525,
  " cheap": 6526,
  " Die": 6527,
  " mine": 6528,
  " detailed": 6529,
  "ordan": 6530,
  " meat": 6531,
  " Er": 6532,
  " Wik": 6533,
  "ayers": 6534,
  " featured": 6535,
  " unus": 6536,
  " formed": 6537,
  " competitive": 6538,
  " describe": 6539,
  " carrying": 6540,
  " Sar": 6541,
  "friend": 6542,
  "name": 6543,
  " Cy": 6544,
  "nic": 6545,
  " Home": 6546,
  " trick": 6547,
  " relationships": 6548,
  " Aut": 6549,
  " tournament": 6550,
  " fundamental": 6551,
  "certain": 6552,
  " IP": 6553,
  " termin": 6554,
  " Way": 6555,
  " wave": 6556,
  "kel": 6557,
  " signing": 6558,
  " cycle": 6559,
  " crazy": 6560,
  "obb": 6561,
  " earned": 6562,
  " regional": 6563,
  " wins": 6564,
  "nam": 6565,
  " guide": 6566,
  " decline": 6567,
  "\u00c3": 6568,
  " Catholic": 6569,
  " Palestinian": 6570,
  "08": 6571,
  " embr": 6572,
  "style": 6573,
  " strange": 6574,
  " Long": 6575,
  "ensus": 6576,
  " ancient": 6577,
  " frequently": 6578,
  " Jesus": 6579,
  " pip": 6580,
  " CIA": 6581,
  "06": 6582,
  " acting": 6583,
  " efficient": 6584,
  " manner": 6585,
  " Card": 6586,
  " Putin": 6587,
  " wire": 6588,
  " comfortable": 6589,
  " pushing": 6590,
  "rome": 6591,
  "ockey": 6592,
  "Per": 6593,
  " sharing": 6594,
  "chers": 6595,
  " Ell": 6596,
  "ORE": 6597,
  " Econom": 6598,
  " owned": 6599,
  " instru": 6600,
  " alongside": 6601,
  "bar": 6602,
  " OF": 6603,
  "uated": 6604,
  " skill": 6605,
  "anes": 6606,
  " commitment": 6607,
  " Davis": 6608,
  " artists": 6609,
  "rison": 6610,
  "09": 6611,
  " controversial": 6612,
  " referred": 6613,
  " egg": 6614,
  " Lord": 6615,
  "weight": 6616,
  " 34": 6617,
  " mouth": 6618,
  " 48": 6619,
  " Top": 6620,
  " repeatedly": 6621,
  "awa": 6622,
  "FP": 6623,
  " femin": 6624,
  " attempted": 6625,
  " AL": 6626,
  " updated": 6627,
  "umber": 6628,
  "ua": 6629,
  "foot": 6630,
  " cert": 6631,
  "xy": 6632,
  "vin": 6633,
  " Old": 6634,
  " schedule": 6635,
  "\\u00ef\\u00bf": 6636,
  "amily": 6637,
  " pregn": 6638,
  " dedicated": 6639,
  "\u043d": 6640,
  "adel": 6641,
  " upcoming": 6642,
  " sentence": 6643,
  " NY": 6644,
  " Di": 6645,
  " Right": 6646,
  " column": 6647,
  " Down": 6648,
  " PS": 6649,
  " depth": 6650,
  "uable": 6651,
  "hus": 6652,
  " virtual": 6653,
  " studio": 6654,
  "%)": 6655,
  " struck": 6656,
  " realized": 6657,
  " journey": 6658,
  " pled": 6659,
  "ographic": 6660,
  "ko": 6661,
  "Despite": 6662,
  "\u0440": 6663,
  " desk": 6664,
  " serving": 6665,
  " Energy": 6666,
  " Cle": 6667,
  "ceived": 6668,
  " walked": 6669,
  " medic": 6670,
  "iveness": 6671,
  "ugh": 6672,
  "iami": 6673,
  " ring": 6674,
  "DS": 6675,
  " urban": 6676,
  "phy": 6677,
  " Wild": 6678,
  " king": 6679,
  " reput": 6680,
  "rive": 6681,
  "you": 6682,
  " Charles": 6683,
  " targeted": 6684,
  " channel": 6685,
  " posts": 6686,
  "luding": 6687,
  " inspired": 6688,
  "07": 6689,
  " hotel": 6690,
  "Like": 6691,
  " tort": 6692,
  " universe": 6693,
  " assets": 6694,
  " Supp": 6695,
  "Two": 6696,
  " newslet": 6697,
  " agenda": 6698,
  " Arizona": 6699,
  " watched": 6700,
  " causing": 6701,
  " Men": 6702,
  " stream": 6703,
  " surveillance": 6704,
  " overwhel": 6705,
  " usual": 6706,
  "People": 6707,
  " suicide": 6708,
  " opponents": 6709,
  " Py": 6710,
  " sister": 6711,
  "gor": 6712,
  " intent": 6713,
  " chairman": 6714,
  " liqu": 6715,
  " Wars": 6716,
  " mainstream": 6717,
  " Cruz": 6718,
  "sole": 6719,
  " du": 6720,
  "bel": 6721,
  " latter": 6722,
  " hall": 6723,
  " folks": 6724,
  " surrounding": 6725,
  " 75": 6726,
  " knowing": 6727,
  " orders": 6728,
  " remote": 6729,
  " literally": 6730,
  " sand": 6731,
  " Again": 6732,
  " infl": 6733,
  " Inf": 6734,
  " observed": 6735,
  " subsid": 6736,
  " Java": 6737,
  " Van": 6738,
  " Defense": 6739,
  " approval": 6740,
  "Fr": 6741,
  "iments": 6742,
  "azi": 6743,
  " basket": 6744,
  "acc": 6745,
  "rence": 6746,
  "izz": 6747,
  "burg": 6748,
  "avor": 6749,
  " Tal": 6750,
  " teachers": 6751,
  " winter": 6752,
  "aze": 6753,
  " exciting": 6754,
  "boy": 6755,
  "aylor": 6756,
  "iciency": 6757,
  "alle": 6758,
  " format": 6759,
  " protected": 6760,
  " Young": 6761,
  "ati": 6762,
  "iro": 6763,
  " simpl": 6764,
  " noticed": 6765,
  " congress": 6766,
  " dealing": 6767,
  " Child": 6768,
  "rations": 6769,
  "xual": 6770,
  " precise": 6771,
  " Jr": 6772,
  " communication": 6773,
  " deeply": 6774,
  " fasc": 6775,
  " gang": 6776,
  " sending": 6777,
  "ipl": 6778,
  "67": 6779,
  " forth": 6780,
  " battery": 6781,
  "abis": 6782,
  " wal": 6783,
  " narr": 6784,
  "mun": 6785,
  " aside": 6786,
  " fixed": 6787,
  " sky": 6788,
  " requirements": 6789,
  "post": 6790,
  " properties": 6791,
  "Int": 6792,
  " coffee": 6793,
  "allas": 6794,
  " eating": 6795,
  " wake": 6796,
  " passion": 6797,
  "rors": 6798,
  " alive": 6799,
  " narrow": 6800,
  "woman": 6801,
  "onymous": 6802,
  "Or": 6803,
  " mistake": 6804,
  "ensity": 6805,
  " Arch": 6806,
  " explore": 6807,
  " Pan": 6808,
  " diet": 6809,
  " volume": 6810,
  " promised": 6811,
  " 1970": 6812,
  " rape": 6813,
  "acking": 6814,
  " flu": 6815,
  " Fort": 6816,
  "May": 6817,
  " Polit": 6818,
  " Wat": 6819,
  " risks": 6820,
  " sweet": 6821,
  "\u2019.": 6822,
  " exhib": 6823,
  " northern": 6824,
  " Max": 6825,
  " neut": 6826,
  " involving": 6827,
  " Enter": 6828,
  " tested": 6829,
  " defeat": 6830,
  " refugees": 6831,
  " selection": 6832,
  "ether": 6833,
  "ulture": 6834,
  " welcome": 6835,
  " wage": 6836,
  " Cast": 6837,
  " extended": 6838,
  " Kevin": 6839,
  " reward": 6840,
  " puts": 6841,
  " phenomen": 6842,
  " unemploy": 6843,
  " territory": 6844,
  " sample": 6845,
  "59": 6846,
  " approximately": 6847,
  " Brad": 6848,
  " height": 6849,
  " blame": 6850,
  " anyway": 6851,
  "ta": 6852,
  " Detroit": 6853,
  "ums": 6854,
  " impressive": 6855,
  " destroyed": 6856,
  "obile": 6857,
  "asks": 6858,
  " Stephen": 6859,
  "igg": 6860,
  " crash": 6861,
  " unknown": 6862,
  " gap": 6863,
  " proof": 6864,
  " god": 6865,
  " dry": 6866,
  "04": 6867,
  " locations": 6868,
  " west": 6869,
  "anges": 6870,
  " selected": 6871,
  "gery": 6872,
  "apse": 6873,
  " Fil": 6874,
  "stone": 6875,
  " attacked": 6876,
  " Tit": 6877,
  " Miller": 6878,
  " maximum": 6879,
  "lv": 6880,
  "\ufffd": 6881,
  " Wilson": 6882,
  " promote": 6883,
  " requests": 6884,
  " shel": 6885,
  "aser": 6886,
  " merely": 6887,
  " retire": 6888,
  "arry": 6889,
  "ogan": 6890,
  " sho": 6891,
  " franchise": 6892,
  " protesters": 6893,
  " slowly": 6894,
  "dro": 6895,
  " suddenly": 6896,
  " disag": 6897,
  "ixt": 6898,
  "list": 6899,
  " typical": 6900,
  " teacher": 6901,
  "ingu": 6902,
  " chose": 6903,
  " Camer": 6904,
  " conver": 6905,
  " Ins": 6906,
  " Women": 6907,
  " Lu": 6908,
  " prote": 6909,
  " matches": 6910,
  "Rel": 6911,
  " properly": 6912,
  "03": 6913,
  " license": 6914,
  " assume": 6915,
  " Mic": 6916,
  " discover": 6917,
  " Class": 6918,
  "oration": 6919,
  " abortion": 6920,
  " wid": 6921,
  " PR": 6922,
  " moder": 6923,
  "ao": 6924,
  " allies": 6925,
  " worried": 6926,
  "owered": 6927,
  "02": 6928,
  " terrorism": 6929,
  "fire": 6930,
  " supports": 6931,
  " oblig": 6932,
  "verty": 6933,
  "uilding": 6934,
  "inson": 6935,
  "gender": 6936,
  " arguments": 6937,
  " adapt": 6938,
  " pal": 6939,
  " confront": 6940,
  " facilities": 6941,
  " east": 6942,
  " theme": 6943,
  " fuck": 6944,
  " sustain": 6945,
  "\\u0020\\u00ce": 6946,
  " recognize": 6947,
  "igure": 6948,
  "lies": 6949,
  " equival": 6950,
  " poverty": 6951,
  " rub": 6952,
  " fees": 6953,
  " Italy": 6954,
  " deals": 6955,
  " obtained": 6956,
  " nomine": 6957,
  "itarian": 6958,
  "mo": 6959,
  " understood": 6960,
  "osis": 6961,
  "VER": 6962,
  " Hollywood": 6963,
  "alo": 6964,
  "\u00c3\u00c2": 6965,
  " Best": 6966,
  " Ford": 6967,
  " Agency": 6968,
  "axy": 6969,
  " critics": 6970,
  " controlled": 6971,
  " sole": 6972,
  " topic": 6973,
  " Society": 6974,
  " village": 6975,
  " Dam": 6976,
  " Georgia": 6977,
  " Administ": 6978,
  " Jersey": 6979,
  "arity": 6980,
  " likes": 6981,
  "\u00c3\u00c2\u00c3\u00c2": 6982,
  " diagn": 6983,
  "celer": 6984,
  "68": 6985,
  "sters": 6986,
  "raid": 6987,
  " Four": 6988,
  "han": 6989,
  " dress": 6990,
  " ped": 6991,
  "Te": 6992,
  " punish": 6993,
  " journalists": 6994,
  " evil": 6995,
  "cript": 6996,
  " scheme": 6997,
  " exposed": 6998,
  " bunch": 6999,
  " Company": 7000,
  "ocation": 7001,
  "John": 7002,
  " transp": 7003,
  " regions": 7004,
  "redit": 7005,
  " communications": 7006,
  " limits": 7007,
  " stim": 7008,
  " somehow": 7009,
  " strongly": 7010,
  " honor": 7011,
  " champion": 7012,
  "aug": 7013,
  " drag": 7014,
  "lls": 7015,
  "aire": 7016,
  " constant": 7017,
  "pool": 7018,
  " resistance": 7019,
  " Labor": 7020,
  "asts": 7021,
  " condem": 7022,
  " NASA": 7023,
  " phase": 7024,
  " Carl": 7025,
  " profit": 7026,
  " vacc": 7027,
  " personally": 7028,
  " escape": 7029,
  " bid": 7030,
  " truck": 7031,
  " Stand": 7032,
  " Land": 7033,
  " Night": 7034,
  "rimination": 7035,
  " Dun": 7036,
  "nesota": 7037,
  " NHL": 7038,
  "CA": 7039,
  " deck": 7040,
  " falling": 7041,
  " bear": 7042,
  " somewhere": 7043,
  " employee": 7044,
  " Network": 7045,
  "iform": 7046,
  "GBT": 7047,
  "cers": 7048,
  " harass": 7049,
  "ads": 7050,
  "ems": 7051,
  "iner": 7052,
  " View": 7053,
  " comparison": 7054,
  "orted": 7055,
  " Love": 7056,
  " CD": 7057,
  "ciples": 7058,
  " polls": 7059,
  "owa": 7060,
  " inqu": 7061,
  " Spanish": 7062,
  "oric": 7063,
  " southern": 7064,
  "cow": 7065,
  " encourage": 7066,
  "enders": 7067,
  "pected": 7068,
  " decent": 7069,
  " 39": 7070,
  " empty": 7071,
  " Kn": 7072,
  " emissions": 7073,
  " pic": 7074,
  " Miami": 7075,
  " definition": 7076,
  "57": 7077,
  "oster": 7078,
  " hits": 7079,
  " directed": 7080,
  "wan": 7081,
  " Cam": 7082,
  " meetings": 7083,
  " flex": 7084,
  "pes": 7085,
  "zens": 7086,
  " End": 7087,
  " Bell": 7088,
  " Ok": 7089,
  " winner": 7090,
  "\\u00d0\\u00be\\u00d0": 7091,
  "intend": 7092,
  "icken": 7093,
  " comprom": 7094,
  " gotten": 7095,
  " Daniel": 7096,
  "aun": 7097,
  " Turk": 7098,
  " officially": 7099,
  " database": 7100,
  " electricity": 7101,
  " chosen": 7102,
  " bench": 7103,
  " spin": 7104,
  " stretch": 7105,
  " Despite": 7106,
  "Com": 7107,
  " intellect": 7108,
  " stronger": 7109,
  " purposes": 7110,
  " DNA": 7111,
  "igation": 7112,
  " cutting": 7113,
  " desper": 7114,
  " amounts": 7115,
  " fold": 7116,
  "rary": 7117,
  " Turn": 7118,
  " Asian": 7119,
  " extensive": 7120,
  " ideal": 7121,
  " deleg": 7122,
  " anx": 7123,
  " fifth": 7124,
  " trees": 7125,
  " thread": 7126,
  " colon": 7127,
  " developer": 7128,
  "Any": 7129,
  "UR": 7130,
  "unning": 7131,
  " claiming": 7132,
  " retain": 7133,
  " goods": 7134,
  " captured": 7135,
  " driven": 7136,
  " soul": 7137,
  "CS": 7138,
  " payments": 7139,
  " finds": 7140,
  " Though": 7141,
  " ties": 7142,
  "asters": 7143,
  "ras": 7144,
  " Jordan": 7145,
  "\\u0088\\u0092": 7146,
  " choices": 7147,
  " somebody": 7148,
  " Nations": 7149,
  " reasonable": 7150,
  " dogs": 7151,
  " Services": 7152,
  " ble": 7153,
  " pod": 7154,
  " ending": 7155,
  " Thank": 7156,
  " Sea": 7157,
  " drawn": 7158,
  " seats": 7159,
  " engage": 7160,
  " sight": 7161,
  " ruled": 7162,
  " param": 7163,
  " threatened": 7164,
  " Dar": 7165,
  " Attorney": 7166,
  "CE": 7167,
  "eping": 7168,
  "\\u00e2\\u0096": 7169,
  " Irish": 7170,
  "owed": 7171,
  " primarily": 7172,
  " fighters": 7173,
  "ML": 7174,
  " trading": 7175,
  "ura": 7176,
  " aspects": 7177,
  " perfectly": 7178,
  " answers": 7179,
  " rival": 7180,
  " parking": 7181,
  " incl": 7182,
  " rejected": 7183,
  " Academ": 7184,
  "fast": 7185,
  " Gall": 7186,
  " payment": 7187,
  "irms": 7188,
  " distinct": 7189,
  " Cat": 7190,
  " constantly": 7191,
  " Real": 7192,
  " Hun": 7193,
  " rig": 7194,
  " flying": 7195,
  " technologies": 7196,
  "Police": 7197,
  "EW": 7198,
  " elsewhere": 7199,
  " admit": 7200,
  "sea": 7201,
  " icon": 7202,
  " Scotland": 7203,
  " components": 7204,
  "</": 7205,
  " tur": 7206,
  " fields": 7207,
  " Dark": 7208,
  " solutions": 7209,
  " anymore": 7210,
  " constit": 7211,
  "lder": 7212,
  " Bru": 7213,
  " estimates": 7214,
  " resulting": 7215,
  " actor": 7216,
  " regularly": 7217,
  "sm": 7218,
  " province": 7219,
  " worldwide": 7220,
  " encoun": 7221,
  " awesome": 7222,
  " Ut": 7223,
  " narrative": 7224,
  " courts": 7225,
  "Once": 7226,
  "78": 7227,
  " Moore": 7228,
  " enemies": 7229,
  " Disney": 7230,
  " mixed": 7231,
  " boot": 7232,
  "mod": 7233,
  "regon": 7234,
  " OS": 7235,
  " houses": 7236,
  "icer": 7237,
  " nobody": 7238,
  "ez": 7239,
  "inations": 7240,
  "agram": 7241,
  "iana": 7242,
  " letters": 7243,
  " Sk": 7244,
  " controls": 7245,
  "apes": 7246,
  " 42": 7247,
  "sell": 7248,
  " Water": 7249,
  "imp": 7250,
  " loan": 7251,
  " murd": 7252,
  " mayor": 7253,
  " outcome": 7254,
  " contem": 7255,
  " MS": 7256,
  " coalition": 7257,
  "ship": 7258,
  "vy": 7259,
  "Sec": 7260,
  " Light": 7261,
  "isan": 7262,
  "onic": 7263,
  " contributed": 7264,
  " Adam": 7265,
  " Steven": 7266,
  " apartment": 7267,
  " concluded": 7268,
  " Brian": 7269,
  " tank": 7270,
  " Bas": 7271,
  " founder": 7272,
  " atmosphere": 7273,
  " Lew": 7274,
  " exists": 7275,
  "earing": 7276,
  " brew": 7277,
  " Tw": 7278,
  "rates": 7279,
  " situations": 7280,
  " profile": 7281,
  " Id": 7282,
  " Author": 7283,
  " Constitution": 7284,
  " Championship": 7285,
  " incredible": 7286,
  "Dr": 7287,
  "300": 7288,
  "otes": 7289,
  "ker": 7290,
  " signal": 7291,
  " accurate": 7292,
  " unp": 7293,
  " employment": 7294,
  "otten": 7295,
  " Southern": 7296,
  " Victor": 7297,
  " clients": 7298,
  " Rog": 7299,
  " Where": 7300,
  ".\"[": 7301,
  "inity": 7302,
  " continuing": 7303,
  " baseball": 7304,
  " informed": 7305,
  " generate": 7306,
  " keeps": 7307,
  " ticket": 7308,
  " Conf": 7309,
  "Also": 7310,
  " weird": 7311,
  " conven": 7312,
  " tied": 7313,
  " infect": 7314,
  "lock": 7315,
  "ifer": 7316,
  "adelph": 7317,
  " angry": 7318,
  " machines": 7319,
  "acked": 7320,
  " kil": 7321,
  " category": 7322,
  "aron": 7323,
  "ilarly": 7324,
  " Organ": 7325,
  " routine": 7326,
  " raising": 7327,
  " demands": 7328,
  " registered": 7329,
  " proved": 7330,
  "there": 7331,
  " crucial": 7332,
  " Dallas": 7333,
  " Civil": 7334,
  " incredibly": 7335,
  " Italian": 7336,
  " feedback": 7337,
  " stuck": 7338,
  " gaming": 7339,
  " Joseph": 7340,
  "cr": 7341,
  " upper": 7342,
  "56": 7343,
  "MP": 7344,
  " plastic": 7345,
  " terrible": 7346,
  " newly": 7347,
  " estate": 7348,
  " Spain": 7349,
  " innoc": 7350,
  "ali": 7351,
  "rage": 7352,
  " dozen": 7353,
  " bills": 7354,
  " imper": 7355,
  " Tem": 7356,
  " manip": 7357,
  " conscious": 7358,
  " consumption": 7359,
  " enthus": 7360,
  "ifications": 7361,
  " writers": 7362,
  " Cross": 7363,
  "Today": 7364,
  "lers": 7365,
  " excess": 7366,
  " returning": 7367,
  " aggressive": 7368,
  "inding": 7369,
  " Thanks": 7370,
  " reporter": 7371,
  " stead": 7372,
  " roster": 7373,
  " compens": 7374,
  " Bowl": 7375,
  " represented": 7376,
  " conclusion": 7377,
  " origin": 7378,
  " assistant": 7379,
  "MS": 7380,
  " AR": 7381,
  " Minnesota": 7382,
  " programming": 7383,
  "adelphia": 7384,
  "98": 7385,
  " rus": 7386,
  " organized": 7387,
  " satell": 7388,
  " drinking": 7389,
  " penalty": 7390,
  "ria": 7391,
  " paint": 7392,
  " capture": 7393,
  " gro": 7394,
  " Program": 7395,
  "ni": 7396,
  "iscal": 7397,
  " county": 7398,
  " explanation": 7399,
  " conspir": 7400,
  "essed": 7401,
  "58": 7402,
  "iscons": 7403,
  " interpret": 7404,
  "mont": 7405,
  "emen": 7406,
  "ima": 7407,
  " Roman": 7408,
  " assistance": 7409,
  "anny": 7410,
  "gorith": 7411,
  "isconsin": 7412,
  " complaint": 7413,
  " nut": 7414,
  " ru": 7415,
  "LA": 7416,
  " tall": 7417,
  " Oper": 7418,
  " granted": 7419,
  "Because": 7420,
  " Contin": 7421,
  " magic": 7422,
  " %": 7423,
  "Ed": 7424,
  "star": 7425,
  " Parliament": 7426,
  " audio": 7427,
  "Off": 7428,
  " complicated": 7429,
  " extract": 7430,
  " chances": 7431,
  "rypt": 7432,
  " Educ": 7433,
  "era": 7434,
  " successfully": 7435,
  " 1999": 7436,
  "esy": 7437,
  " Gi": 7438,
  " shares": 7439,
  " hel": 7440,
  " pilot": 7441,
  " Ep": 7442,
  "zy": 7443,
  " Zeal": 7444,
  " Test": 7445,
  " myth": 7446,
  " Care": 7447,
  " Hot": 7448,
  " IT": 7449,
  " iron": 7450,
  " veteran": 7451,
  " recovery": 7452,
  " scenes": 7453,
  " Win": 7454,
  "ked": 7455,
  " Fre": 7456,
  " ($": 7457,
  " techniques": 7458,
  " degrees": 7459,
  "actions": 7460,
  "thew": 7461,
  " lawmakers": 7462,
  " SC": 7463,
  " sympt": 7464,
  " western": 7465,
  " aimed": 7466,
  " operate": 7467,
  "........": 7468,
  "rating": 7469,
  " ads": 7470,
  "Inst": 7471,
  " habit": 7472,
  "anchester": 7473,
  " 55": 7474,
  "idency": 7475,
  "rep": 7476,
  " phr": 7477,
  "rete": 7478,
  " taste": 7479,
  " engaged": 7480,
  " privile": 7481,
  " teaching": 7482,
  "========": 7483,
  "itar": 7484,
  " passes": 7485,
  " rating": 7486,
  " academic": 7487,
  " dollar": 7488,
  " Foreign": 7489,
  " automatically": 7490,
  " Os": 7491,
  "uan": 7492,
  "hent": 7493,
  " therap": 7494,
  " attended": 7495,
  " permanent": 7496,
  " Pacific": 7497,
  " Look": 7498,
  " extrem": 7499,
  "chain": 7500,
  " monit": 7501,
  " enable": 7502,
  " anticip": 7503,
  " Senator": 7504,
  "itals": 7505,
  " survive": 7506,
  " marked": 7507,
  " blocks": 7508,
  "abama": 7509,
  " accomp": 7510,
  "%.": 7511,
  " NBC": 7512,
  " taught": 7513,
  "aed": 7514,
  " hidden": 7515,
  " titles": 7516,
  " Linux": 7517,
  " elite": 7518,
  "ibilities": 7519,
  " bom": 7520,
  " index": 7521,
  "everal": 7522,
  " lawyers": 7523,
  " installed": 7524,
  " depending": 7525,
  " valuable": 7526,
  "from": 7527,
  " compre": 7528,
  " championship": 7529,
  " root": 7530,
  "mal": 7531,
  " downtown": 7532,
  "rific": 7533,
  " Bull": 7534,
  " equivalent": 7535,
  " duty": 7536,
  " solve": 7537,
  " Special": 7538,
  " pace": 7539,
  " Business": 7540,
  " 64": 7541,
  " overse": 7542,
  " reputation": 7543,
  " pin": 7544,
  " visited": 7545,
  " Taylor": 7546,
  "HS": 7547,
  " phones": 7548,
  " personnel": 7549,
  " uncertain": 7550,
  "uine": 7551,
  " warming": 7552,
  "aturally": 7553,
  "reams": 7554,
  " fake": 7555,
  " sufficient": 7556,
  "bal": 7557,
  " vulnerable": 7558,
  " enjoyed": 7559,
  " recording": 7560,
  " principles": 7561,
  " Nick": 7562,
  " exposure": 7563,
  " generated": 7564,
  " negotiations": 7565,
  " bitcoin": 7566,
  " Anth": 7567,
  " advis": 7568,
  "inder": 7569,
  " regardless": 7570,
  "\\u00e3\\u0080": 7571,
  " collected": 7572,
  " Kelly": 7573,
  " dict": 7574,
  " cup": 7575,
  " elev": 7576,
  "active": 7577,
  "EA": 7578,
  " patterns": 7579,
  "Getty": 7580,
  " Take": 7581,
  "bro": 7582,
  "))": 7583,
  " Josh": 7584,
  " cable": 7585,
  " worker": 7586,
  " 65": 7587,
  " Avenue": 7588,
  " disaster": 7589,
  " chat": 7590,
  " 150": 7591,
  " mainly": 7592,
  " racial": 7593,
  "quarters": 7594,
  " Coast": 7595,
  " pounds": 7596,
  " portion": 7597,
  " Ah": 7598,
  "month": 7599,
  " inspir": 7600,
  " busy": 7601,
  " Viet": 7602,
  " defence": 7603,
  " bes": 7604,
  " Tony": 7605,
  " grant": 7606,
  " afraid": 7607,
  " tracks": 7608,
  " Call": 7609,
  " Eastern": 7610,
  "orne": 7611,
  " intense": 7612,
  " shit": 7613,
  " LGBT": 7614,
  "athy": 7615,
  " Series": 7616,
  "da": 7617,
  " apolog": 7618,
  " funny": 7619,
  " comic": 7620,
  " Moscow": 7621,
  " possession": 7622,
  " surgery": 7623,
  " Still": 7624,
  " Coll": 7625,
  "ashes": 7626,
  "mann": 7627,
  " prominent": 7628,
  " Kurd": 7629,
  " Mars": 7630,
  "ules": 7631,
  " Ger": 7632,
  " thin": 7633,
  " troub": 7634,
  "97": 7635,
  " processes": 7636,
  " engineering": 7637,
  "Col": 7638,
  "fall": 7639,
  "this": 7640,
  " Ray": 7641,
  " Nation": 7642,
  " Come": 7643,
  " entit": 7644,
  " Kent": 7645,
  "\u2019,": 7646,
  " unusual": 7647,
  " describes": 7648,
  "etary": 7649,
  "world": 7650,
  "raph": 7651,
  " emerged": 7652,
  " taxp": 7653,
  " gall": 7654,
  " resulted": 7655,
  "96": 7656,
  "iler": 7657,
  " coordin": 7658,
  " propag": 7659,
  " stations": 7660,
  " Invest": 7661,
  " Iowa": 7662,
  " brut": 7663,
  " Oregon": 7664,
  " fought": 7665,
  " dim": 7666,
  " extension": 7667,
  "Pr": 7668,
  " corruption": 7669,
  "prise": 7670,
  " Zealand": 7671,
  "ye": 7672,
  " adopted": 7673,
  "ref": 7674,
  " compete": 7675,
  " AD": 7676,
  " blind": 7677,
  " recru": 7678,
  " everywhere": 7679,
  " 400": 7680,
  " hadn": 7681,
  " mail": 7682,
  " Ali": 7683,
  " Balt": 7684,
  "ba": 7685,
  " crypt": 7686,
  " Hom": 7687,
  "Mean": 7688,
  "icate": 7689,
  "herent": 7690,
  "Rec": 7691,
  " contracts": 7692,
  "front": 7693,
  " Rick": 7694,
  " Dead": 7695,
  " feelings": 7696,
  " Lo": 7697,
  " rarely": 7698,
  " neuro": 7699,
  " \u2019": 7700,
  "idelines": 7701,
  " minority": 7702,
  " spr": 7703,
  " advertising": 7704,
  " discipl": 7705,
  "cles": 7706,
  "HA": 7707,
  "tes": 7708,
  " firms": 7709,
  " Veg": 7710,
  "making": 7711,
  "upid": 7712,
  " Northern": 7713,
  " cameras": 7714,
  "gun": 7715,
  " sanctions": 7716,
  " Philadelphia": 7717,
  "olt": 7718,
  "scape": 7719,
  "viously": 7720,
  " explicit": 7721,
  " finance": 7722,
  " strict": 7723,
  " enorm": 7724,
  "ifies": 7725,
  "cling": 7726,
  " cited": 7727,
  " shortly": 7728,
  " Before": 7729,
  "log": 7730,
  " Policy": 7731,
  " implementation": 7732,
  " expectations": 7733,
  "UL": 7734,
  " Greek": 7735,
  " recip": 7736,
  " thousand": 7737,
  " Navy": 7738,
  "antic": 7739,
  " thick": 7740,
  "orough": 7741,
  " loud": 7742,
  " affili": 7743,
  "urrent": 7744,
  "ogen": 7745,
  " photograph": 7746,
  " Mu": 7747,
  "istent": 7748,
  "rell": 7749,
  "cus": 7750,
  " inev": 7751,
  " medium": 7752,
  "azz": 7753,
  " Wisconsin": 7754,
  " Food": 7755,
  " veget": 7756,
  " Live": 7757,
  " plug": 7758,
  " scenario": 7759,
  " sup": 7760,
  "ilton": 7761,
  " ho": 7762,
  " lights": 7763,
  "LC": 7764,
  " visible": 7765,
  " bridge": 7766,
  " priority": 7767,
  " creates": 7768,
  " permission": 7769,
  "inking": 7770,
  "izon": 7771,
  " ven": 7772,
  "ATE": 7773,
  "Co": 7774,
  " obst": 7775,
  " agric": 7776,
  "eland": 7777,
  " algorith": 7778,
  " wing": 7779,
  " browser": 7780,
  " Foot": 7781,
  "who": 7782,
  " participate": 7783,
  "asion": 7784,
  "elect": 7785,
  "aska": 7786,
  " tag": 7787,
  " Global": 7788,
  " mel": 7789,
  " acceler": 7790,
  " Ol": 7791,
  " Has": 7792,
  " dozens": 7793,
  " basketball": 7794,
  " laid": 7795,
  "text": 7796,
  " Kingdom": 7797,
  " historic": 7798,
  " computers": 7799,
  " losses": 7800,
  " Ash": 7801,
  "Mar": 7802,
  " strikes": 7803,
  " Saf": 7804,
  " unw": 7805,
  " Amendment": 7806,
  "ogether": 7807,
  " tor": 7808,
  " principle": 7809,
  " scoring": 7810,
  "76": 7811,
  "54": 7812,
  "::": 7813,
  "obs": 7814,
  " 44": 7815,
  "igen": 7816,
  " formal": 7817,
  "athered": 7818,
  " Development": 7819,
  "she": 7820,
  "found": 7821,
  " SP": 7822,
  "EP": 7823,
  " shock": 7824,
  " counsel": 7825,
  "profit": 7826,
  " wonderful": 7827,
  " behalf": 7828,
  " Greg": 7829,
  " uncom": 7830,
  " Henry": 7831,
  "52": 7832,
  " toler": 7833,
  "enth": 7834,
  " establishment": 7835,
  " interface": 7836,
  "car": 7837,
  "++": 7838,
  "Us": 7839,
  " ju": 7840,
  " founded": 7841,
  " foundation": 7842,
  " fee": 7843,
  " gained": 7844,
  " Major": 7845,
  "lete": 7846,
  "abs": 7847,
  "51": 7848,
  "amber": 7849,
  " cannabis": 7850,
  " clubs": 7851,
  "etime": 7852,
  "ilipp": 7853,
  " borrow": 7854,
  " Thus": 7855,
  " airport": 7856,
  " Key": 7857,
  " ESP": 7858,
  " manufacturing": 7859,
  "jo": 7860,
  "olis": 7861,
  "weet": 7862,
  " rely": 7863,
  "aus": 7864,
  "ystem": 7865,
  " Hit": 7866,
  "BO": 7867,
  " Royal": 7868,
  "Before": 7869,
  " component": 7870,
  "rators": 7871,
  " Sn": 7872,
  " Pay": 7873,
  "osexual": 7874,
  " ridic": 7875,
  " journalist": 7876,
  "rative": 7877,
  " genuine": 7878,
  " relief": 7879,
  "uer": 7880,
  " wheel": 7881,
  " Alabama": 7882,
  " headed": 7883,
  " Oak": 7884,
  " hole": 7885,
  " gift": 7886,
  " yield": 7887,
  " saved": 7888,
  "Ne": 7889,
  " Moh": 7890,
  " Rand": 7891,
  "ependent": 7892,
  " cyber": 7893,
  " withdraw": 7894,
  "bell": 7895,
  "arlier": 7896,
  " Vis": 7897,
  " fault": 7898,
  "umer": 7899,
  " drawing": 7900,
  " footage": 7901,
  " indicate": 7902,
  " uniform": 7903,
  " magn": 7904,
  " banned": 7905,
  " Mid": 7906,
  " stable": 7907,
  "Meanwhile": 7908,
  " ships": 7909,
  "rous": 7910,
  " recognized": 7911,
  " 1960": 7912,
  " containing": 7913,
  " FC": 7914,
  " doors": 7915,
  "ami": 7916,
  "aning": 7917,
  "pread": 7918,
  " neighb": 7919,
  " struggling": 7920,
  " river": 7921,
  " ->": 7922,
  " spark": 7923,
  "ounced": 7924,
  " achieved": 7925,
  " walls": 7926,
  "opher": 7927,
  " Academy": 7928,
  "mate": 7929,
  " edition": 7930,
  "Sub": 7931,
  "lan": 7932,
  " plate": 7933,
  " HT": 7934,
  "portion": 7935,
  " movements": 7936,
  " deliber": 7937,
  "teen": 7938,
  " AS": 7939,
  "Post": 7940,
  " sharp": 7941,
  " Premier": 7942,
  "uce": 7943,
  " Three": 7944,
  " neutral": 7945,
  "ulating": 7946,
  " Snow": 7947,
  " episodes": 7948,
  "etts": 7949,
  " producer": 7950,
  " Fund": 7951,
  " exception": 7952,
  " Ret": 7953,
  " 47": 7954,
  " pump": 7955,
  " backed": 7956,
  " Fred": 7957,
  " destruction": 7958,
  "osa": 7959,
  "oured": 7960,
  "________________": 7961,
  " legend": 7962,
  " 1998": 7963,
  " liked": 7964,
  "cription": 7965,
  " beliefs": 7966,
  " hired": 7967,
  " Review": 7968,
  " McG": 7969,
  "idespread": 7970,
  " roles": 7971,
  "umin": 7972,
  " entering": 7973,
  " languages": 7974,
  " Kir": 7975,
  "sylv": 7976,
  " profession": 7977,
  " hang": 7978,
  " Administration": 7979,
  " interviews": 7980,
  " Nob": 7981,
  " tox": 7982,
  " VR": 7983,
  "interest": 7984,
  "isp": 7985,
  " arrange": 7986,
  " flaw": 7987,
  "eman": 7988,
  "Those": 7989,
  " Atlanta": 7990,
  "oen": 7991,
  " philosophy": 7992,
  " dinner": 7993,
  " stadium": 7994,
  " Jac": 7995,
  "imore": 7996,
  "ca": 7997,
  " Note": 7998,
  "uper": 7999,
  "ja": 8000,
  " bath": 8001,
  " Turkish": 8002,
  "iel": 8003,
  " Report": 8004,
  " Conference": 8005,
  "burgh": 8006,
  " finger": 8007,
  " gonna": 8008,
  " reduction": 8009,
  " Centre": 8010,
  " aver": 8011,
  " cha": 8012,
  " 41": 8013,
  " Diego": 8014,
  "400": 8015,
  " Point": 8016,
  " tackle": 8017,
  " Manchester": 8018,
  " nominee": 8019,
  " Jason": 8020,
  " farmers": 8021,
  "53": 8022,
  " barely": 8023,
  " crop": 8024,
  "aching": 8025,
  " contained": 8026,
  " structures": 8027,
  "ATO": 8028,
  " Ott": 8029,
  " delivery": 8030,
  " Fair": 8031,
  " convin": 8032,
  " synt": 8033,
  "erved": 8034,
  " discrimination": 8035,
  "RS": 8036,
  " incent": 8037,
  " processing": 8038,
  "%,": 8039,
  "riers": 8040,
  " Data": 8041,
  "then": 8042,
  "abinet": 8043,
  " Arm": 8044,
  " intellectual": 8045,
  " Radio": 8046,
  " 46": 8047,
  "amsung": 8048,
  " Bry": 8049,
  " Field": 8050,
  " OK": 8051,
  "Me": 8052,
  "sylvania": 8053,
  " Did": 8054,
  " upset": 8055,
  " Mir": 8056,
  " Perhaps": 8057,
  " Education": 8058,
  "away": 8059,
  "rik": 8060,
  "President": 8061,
  " challenging": 8062,
  " restrictions": 8063,
  " proven": 8064,
  " forever": 8065,
  "ho": 8066,
  " euro": 8067,
  "https": 8068,
  " Hay": 8069,
  " electronic": 8070,
  "olen": 8071,
  " hitting": 8072,
  " 43": 8073,
  " unex": 8074,
  " reviews": 8075,
  "Dav": 8076,
  " Fed": 8077,
  " convicted": 8078,
  " Christians": 8079,
  " Hor": 8080,
  " NC": 8081,
  " smooth": 8082,
  " indicated": 8083,
  "page": 8084,
  "Star": 8085,
  " retired": 8086,
  "usive": 8087,
  " illness": 8088,
  " Harry": 8089,
  " producing": 8090,
  "fr": 8091,
  " rapidly": 8092,
  " About": 8093,
  " Rus": 8094,
  " corporations": 8095,
  "iy": 8096,
  " UFC": 8097,
  " Reuters": 8098,
  " rose": 8099,
  " hide": 8100,
  " ocean": 8101,
  " mo": 8102,
  " technique": 8103,
  "owing": 8104,
  "aying": 8105,
  " listening": 8106,
  "yard": 8107,
  " loyal": 8108,
  " Sat": 8109,
  "sels": 8110,
  "lessly": 8111,
  " begun": 8112,
  " climb": 8113,
  " notion": 8114,
  " Nic": 8115,
  "engers": 8116,
  "ouver": 8117,
  " util": 8118,
  " ren": 8119,
  " websites": 8120,
  " recognition": 8121,
  " robot": 8122,
  "87": 8123,
  " Pack": 8124,
  " tickets": 8125,
  " perpet": 8126,
  "achus": 8127,
  " asks": 8128,
  " flash": 8129,
  "inf": 8130,
  " description": 8131,
  " Pen": 8132,
  " association": 8133,
  " milk": 8134,
  " exclusive": 8135,
  " Judge": 8136,
  " suggesting": 8137,
  " bra": 8138,
  " Kansas": 8139,
  " prepare": 8140,
  " reaching": 8141,
  "enny": 8142,
  "Who": 8143,
  " bail": 8144,
  "ione": 8145,
  "iti": 8146,
  " frag": 8147,
  " burd": 8148,
  " progressive": 8149,
  " hardly": 8150,
  " exceed": 8151,
  " equally": 8152,
  " ABC": 8153,
  " Hard": 8154,
  " widespread": 8155,
  " Mayor": 8156,
  " Market": 8157,
  " contribute": 8158,
  " branch": 8159,
  " campaigns": 8160,
  " Rose": 8161,
  "udes": 8162,
  "ologists": 8163,
  "Look": 8164,
  " grass": 8165,
  " initiative": 8166,
  "ikes": 8167,
  "ls": 8168,
  " ethnic": 8169,
  " Circ": 8170,
  " external": 8171,
  " sensitive": 8172,
  "uma": 8173,
  "rient": 8174,
  " normally": 8175,
  "usted": 8176,
  " practical": 8177,
  " unclear": 8178,
  " representative": 8179,
  " Arabia": 8180,
  "elf": 8181,
  "pat": 8182,
  " friendly": 8183,
  "lad": 8184,
  "senal": 8185,
  "Ref": 8186,
  " welf": 8187,
  " Ref": 8188,
  " Full": 8189,
  "appy": 8190,
  " reducing": 8191,
  "89": 8192,
  "ester": 8193,
  " carefully": 8194,
  "thon": 8195,
  " racist": 8196,
  " Ly": 8197,
  "bec": 8198,
  " Next": 8199,
  " invent": 8200,
  " Luc": 8201,
  "PM": 8202,
  "ouch": 8203,
  " respectively": 8204,
  "rical": 8205,
  "PG": 8206,
  "rator": 8207,
  "imm": 8208,
  " CO": 8209,
  " Beach": 8210,
  "ancouver": 8211,
  " Bernie": 8212,
  " overwhelming": 8213,
  " viewers": 8214,
  " welfare": 8215,
  " involvement": 8216,
  " convinced": 8217,
  " McCain": 8218,
  " tail": 8219,
  " smoke": 8220,
  " terrorists": 8221,
  "pload": 8222,
  " Lind": 8223,
  "arrass": 8224,
  " Further": 8225,
  " collapse": 8226,
  "umes": 8227,
  "UN": 8228,
  " thrown": 8229,
  " connections": 8230,
  "heast": 8231,
  " strategic": 8232,
  " recover": 8233,
  " Battle": 8234,
  "stract": 8235,
  " hook": 8236,
  " Ont": 8237,
  "igrant": 8238,
  "omething": 8239,
  " Latin": 8240,
  "Mc": 8241,
  " vital": 8242,
  " wine": 8243,
  "inois": 8244,
  " settlement": 8245,
  " vary": 8246,
  "rolled": 8247,
  " minds": 8248,
  " 00": 8249,
  " Music": 8250,
  " independence": 8251,
  " featuring": 8252,
  " lists": 8253,
  "achusetts": 8254,
  " Sir": 8255,
  " statistics": 8256,
  " Dig": 8257,
  " ESPN": 8258,
  "nedy": 8259,
  "ecut": 8260,
  " behaviour": 8261,
  " fantasy": 8262,
  "worth": 8263,
  " Pennsylvania": 8264,
  " devast": 8265,
  "core": 8266,
  " invited": 8267,
  "dem": 8268,
  " fiscal": 8269,
  " joining": 8270,
  "uties": 8271,
  " deeper": 8272,
  " complaints": 8273,
  "abil": 8274,
  " deputy": 8275,
  "ifest": 8276,
  " scores": 8277,
  " elig": 8278,
  " steal": 8279,
  " anger": 8280,
  " Square": 8281,
  " wars": 8282,
  " sugar": 8283,
  " investigate": 8284,
  " Tenn": 8285,
  " constitutional": 8286,
  " Town": 8287,
  " iOS": 8288,
  " Pit": 8289,
  " AND": 8290,
  " anybody": 8291,
  "FA": 8292,
  " scholars": 8293,
  " Ult": 8294,
  " subjects": 8295,
  " lobby": 8296,
  " array": 8297,
  " Gov": 8298,
  " III": 8299,
  " alien": 8300,
  " unemployment": 8301,
  "Back": 8302,
  " transgender": 8303,
  " ownership": 8304,
  " framework": 8305,
  "bn": 8306,
  " screens": 8307,
  " Division": 8308,
  " tasks": 8309,
  " improvements": 8310,
  " democratic": 8311,
  " peak": 8312,
  " menu": 8313,
  "Che": 8314,
  " luck": 8315,
  " scandal": 8316,
  "iversary": 8317,
  " define": 8318,
  "acon": 8319,
  " inject": 8320,
  " Anton": 8321,
  "ihad": 8322,
  "\u2014\u2014\u2014\u2014": 8323,
  " SS": 8324,
  " Ministry": 8325,
  "icking": 8326,
  " jury": 8327,
  " Es": 8328,
  " Xbox": 8329,
  " casual": 8330,
  " remem": 8331,
  " register": 8332,
  " Kat": 8333,
  "unior": 8334,
  " comprehens": 8335,
  " discovery": 8336,
  "osit": 8337,
  " cos": 8338,
  "Under": 8339,
  " Jay": 8340,
  " citizen": 8341,
  "RI": 8342,
  " fab": 8343,
  " failing": 8344,
  " roads": 8345,
  " disagree": 8346,
  " Brother": 8347,
  " Never": 8348,
  "een": 8349,
  " Little": 8350,
  " Cameron": 8351,
  "oding": 8352,
  " serves": 8353,
  "anna": 8354,
  " gathered": 8355,
  " Information": 8356,
  " trained": 8357,
  " testim": 8358,
  " dynamic": 8359,
  " Mah": 8360,
  "Sm": 8361,
  " implemented": 8362,
  " controversy": 8363,
  " collective": 8364,
  " Stone": 8365,
  " soph": 8366,
  " fears": 8367,
  " samples": 8368,
  "leveland": 8369,
  " Ice": 8370,
  " neighbour": 8371,
  " Community": 8372,
  " fiction": 8373,
  "agg": 8374,
  " Medical": 8375,
  " prosec": 8376,
  "69": 8377,
  " NSA": 8378,
  " estimate": 8379,
  " captain": 8380,
  " referring": 8381,
  " 1996": 8382,
  " Philipp": 8383,
  "Will": 8384,
  " spaces": 8385,
  " tip": 8386,
  " 1997": 8387,
  " Walker": 8388,
  " overt": 8389,
  " Santa": 8390,
  " legs": 8391,
  " temporary": 8392,
  "cific": 8393,
  "PC": 8394,
  "'.": 8395,
  " noise": 8396,
  " civilians": 8397,
  " tone": 8398,
  " incorpor": 8399,
  " HD": 8400,
  " versus": 8401,
  " visitors": 8402,
  " stupid": 8403,
  " reven": 8404,
  " Allen": 8405,
  " sin": 8406,
  " ON": 8407,
  " wages": 8408,
  " recommended": 8409,
  " Spring": 8410,
  " remarks": 8411,
  " heading": 8412,
  " hypot": 8413,
  " handful": 8414,
  " awareness": 8415,
  " Anthony": 8416,
  " Action": 8417,
  " regulation": 8418,
  " touchdown": 8419,
  "icket": 8420,
  " Core": 8421,
  " platforms": 8422,
  " affairs": 8423,
  " accus": 8424,
  " rural": 8425,
  "gener": 8426,
  " Vegas": 8427,
  " attacking": 8428,
  " ultimate": 8429,
  " Ren": 8430,
  " extend": 8431,
  " discussions": 8432,
  " attached": 8433,
  " reprodu": 8434,
  "mad": 8435,
  "phones": 8436,
  " Queen": 8437,
  " Matthew": 8438,
  "iry": 8439,
  " horse": 8440,
  " attempting": 8441,
  " Pent": 8442,
  "including": 8443,
  " expanded": 8444,
  " races": 8445,
  " ignore": 8446,
  "hour": 8447,
  " Columbia": 8448,
  " Brew": 8449,
  " genetic": 8450,
  " Guardian": 8451,
  " Cook": 8452,
  "serv": 8453,
  " Patrick": 8454,
  " settings": 8455,
  " raw": 8456,
  " Make": 8457,
  " gear": 8458,
  " iP": 8459,
  "alling": 8460,
  " symptoms": 8461,
  "itionally": 8462,
  "GO": 8463,
  " suffer": 8464,
  " salary": 8465,
  "angel": 8466,
  " tweeted": 8467,
  "case": 8468,
  "mary": 8469,
  " suspected": 8470,
  " licens": 8471,
  "2014": 8472,
  "aret": 8473,
  " publication": 8474,
  " purchased": 8475,
  " brill": 8476,
  " factory": 8477,
  "esh": 8478,
  " intervention": 8479,
  " holiday": 8480,
  " Austin": 8481,
  " eastern": 8482,
  " ranked": 8483,
  "About": 8484,
  " theat": 8485,
  " Museum": 8486,
  "type": 8487,
  " displ": 8488,
  " cro": 8489,
  "ective": 8490,
  " neck": 8491,
  " Budd": 8492,
  " API": 8493,
  "Sen": 8494,
  " Roy": 8495,
  " Conservative": 8496,
  " enormous": 8497,
  "\")": 8498,
  "ultural": 8499,
  " Massachusetts": 8500,
  "ictions": 8501,
  " ingred": 8502,
  "intendo": 8503,
  " entertainment": 8504,
  " legitimate": 8505,
  " logic": 8506,
  " viewed": 8507,
  " Professor": 8508,
  " improvement": 8509,
  " cogn": 8510,
  " presum": 8511,
  "Ass": 8512,
  " 2019": 8513,
  " Albert": 8514,
  "ommod": 8515,
  "News": 8516,
  " Ball": 8517,
  " www": 8518,
  " actors": 8519,
  " involves": 8520,
  " humanity": 8521,
  " substantial": 8522,
  " resource": 8523,
  " rational": 8524,
  " loans": 8525,
  " brothers": 8526,
  "arms": 8527,
  " seemingly": 8528,
  " layer": 8529,
  "####": 8530,
  " liquid": 8531,
  " coaches": 8532,
  " investigating": 8533,
  " sorry": 8534,
  " resign": 8535,
  " providers": 8536,
  " grounds": 8537,
  " tomorrow": 8538,
  " bureau": 8539,
  " fallen": 8540,
  " \u20ac": 8541,
  " outs": 8542,
  " stake": 8543,
  " advocates": 8544,
  " rook": 8545,
  " absence": 8546,
  " Chair": 8547,
  " investigators": 8548,
  "rec": 8549,
  " dramatic": 8550,
  " fulf": 8551,
  "GE": 8552,
  "repre": 8553,
  "EST": 8554,
  " medicine": 8555,
  "oval": 8556,
  "Where": 8557,
  " Ho": 8558,
  " activist": 8559,
  "plete": 8560,
  " overs": 8561,
  " Check": 8562,
  " Greece": 8563,
  "RC": 8564,
  " conspiracy": 8565,
  "lah": 8566,
  ".-": 8567,
  " coc": 8568,
  " monitor": 8569,
  " Season": 8570,
  " chapter": 8571,
  " missile": 8572,
  " papers": 8573,
  "ped": 8574,
  "aka": 8575,
  " boat": 8576,
  " jur": 8577,
  " suspended": 8578,
  " covers": 8579,
  "iverpool": 8580,
  " opinions": 8581,
  " Golden": 8582,
  " Control": 8583,
  "2016": 8584,
  " Ra": 8585,
  " celeb": 8586,
  "Script": 8587,
  " stayed": 8588,
  " Such": 8589,
  " Ross": 8590,
  " Revolution": 8591,
  " diversity": 8592,
  "Part": 8593,
  " Head": 8594,
  " bars": 8595,
  "otype": 8596,
  "ourse": 8597,
  "Russ": 8598,
  " Iranian": 8599,
  " gam": 8600,
  "xit": 8601,
  " embarrass": 8602,
  " offices": 8603,
  "rets": 8604,
  " Pot": 8605,
  "claim": 8606,
  " disrupt": 8607,
  " Acc": 8608,
  "hot": 8609,
  " poly": 8610,
  "ammed": 8611,
  " Ale": 8612,
  " preced": 8613,
  "reprene": 8614,
  " Hospital": 8615,
  "vard": 8616,
  " careful": 8617,
  "cover": 8618,
  "wered": 8619,
  " amid": 8620,
  " Gaza": 8621,
  "mat": 8622,
  " CBS": 8623,
  " WW": 8624,
  "Related": 8625,
  " authent": 8626,
  " forest": 8627,
  " History": 8628,
  "79": 8629,
  " ham": 8630,
  " Ap": 8631,
  "quest": 8632,
  " Illinois": 8633,
  "isting": 8634,
  " transportation": 8635,
  "74": 8636,
  "72": 8637,
  " 52": 8638,
  "uction": 8639,
  " Sony": 8640,
  " Vancouver": 8641,
  "dit": 8642,
  "rine": 8643,
  "geon": 8644,
  " Kennedy": 8645,
  " handed": 8646,
  " reads": 8647,
  " clothes": 8648,
  " consistently": 8649,
  " Stat": 8650,
  " protocol": 8651,
  " princip": 8652,
  " pref": 8653,
  " warrant": 8654,
  " attitude": 8655,
  " mountain": 8656,
  " porn": 8657,
  "iability": 8658,
  " mining": 8659,
  " Share": 8660,
  " Anderson": 8661,
  " Freedom": 8662,
  " noting": 8663,
  " petition": 8664,
  " colors": 8665,
  " depends": 8666,
  "des": 8667,
  " lowest": 8668,
  " conce": 8669,
  "bi": 8670,
  "??": 8671,
  "unes": 8672,
  " addressed": 8673,
  " Family": 8674,
  " je": 8675,
  " Tri": 8676,
  " referend": 8677,
  " foss": 8678,
  " entr": 8679,
  "!)": 8680,
  " fruit": 8681,
  "Ste": 8682,
  " Mean": 8683,
  " Stadium": 8684,
  " virtually": 8685,
  " stone": 8686,
  " throwing": 8687,
  " speaks": 8688,
  " guarantee": 8689,
  "inch": 8690,
  " surf": 8691,
  " Baltimore": 8692,
  "Both": 8693,
  " steel": 8694,
  " closing": 8695,
  " km": 8696,
  " Iraqi": 8697,
  " buff": 8698,
  " personality": 8699,
  " reader": 8700,
  "FF": 8701,
  "dri": 8702,
  " appreciate": 8703,
  " Cre": 8704,
  " Environment": 8705,
  "ordon": 8706,
  "xx": 8707,
  "keep": 8708,
  "iences": 8709,
  " nerv": 8710,
  "maker": 8711,
  " grav": 8712,
  " profits": 8713,
  " handling": 8714,
  " tea": 8715,
  " Broad": 8716,
  " tries": 8717,
  " contributions": 8718,
  " marks": 8719,
  "zed": 8720,
  " conversations": 8721,
  "ila": 8722,
  "ropri": 8723,
  "low": 8724,
  " fantastic": 8725,
  " Engine": 8726,
  " spiritual": 8727,
  " covering": 8728,
  "\".[": 8729,
  " lands": 8730,
  "ivals": 8731,
  " horror": 8732,
  "aval": 8733,
  "icity": 8734,
  " guest": 8735,
  "ppers": 8736,
  "scale": 8737,
  " astron": 8738,
  " gains": 8739,
  " console": 8740,
  "Her": 8741,
  " Tro": 8742,
  " wrest": 8743,
  " hint": 8744,
  " Ext": 8745,
  " shoulder": 8746,
  " incidents": 8747,
  "flix": 8748,
  " Lewis": 8749,
  "amac": 8750,
  " Harris": 8751,
  " accommod": 8752,
  " judges": 8753,
  "uted": 8754,
  " encouraged": 8755,
  " drew": 8756,
  " lucky": 8757,
  " Cleveland": 8758,
  "uits": 8759,
  " _": 8760,
  " CA": 8761,
  "ira": 8762,
  " depression": 8763,
  " Getty": 8764,
  " subsequent": 8765,
  " Bad": 8766,
  " ranks": 8767,
  " Bang": 8768,
  " Howard": 8769,
  " spoken": 8770,
  " brown": 8771,
  "annels": 8772,
  "Please": 8773,
  " photograp": 8774,
  " inflation": 8775,
  " rhet": 8776,
  " bacter": 8777,
  " inner": 8778,
  " Intelligence": 8779,
  "abeth": 8780,
  " Po": 8781,
  "itting": 8782,
  " gal": 8783,
  "ixed": 8784,
  " Ba": 8785,
  "plate": 8786,
  " Patri": 8787,
  "ported": 8788,
  "ijing": 8789,
  " maps": 8790,
  " 1995": 8791,
  " divided": 8792,
  " drama": 8793,
  "********": 8794,
  " cust": 8795,
  " paralle": 8796,
  " Mexican": 8797,
  " innovation": 8798,
  "unicip": 8799,
  " permit": 8800,
  " distributed": 8801,
  " NATO": 8802,
  " swing": 8803,
  " trem": 8804,
  " Unfortunately": 8805,
  " revel": 8806,
  " Kong": 8807,
  " Las": 8808,
  " voter": 8809,
  " dance": 8810,
  " premium": 8811,
  "pled": 8812,
  "Note": 8813,
  " ballot": 8814,
  " 51": 8815,
  " clim": 8816,
  " efficiency": 8817,
  " Indeed": 8818,
  "eding": 8819,
  " Which": 8820,
  " promises": 8821,
  " CH": 8822,
  " spokesperson": 8823,
  " temperatures": 8824,
  " Samsung": 8825,
  " lying": 8826,
  " locked": 8827,
  " Adv": 8828,
  " portray": 8829,
  " improving": 8830,
  " joy": 8831,
  "Art": 8832,
  "PP": 8833,
  "pie": 8834,
  " threw": 8835,
  " dump": 8836,
  " musical": 8837,
  " Moon": 8838,
  " comedy": 8839,
  " mistakes": 8840,
  " shout": 8841,
  "dated": 8842,
  " Start": 8843,
  " homeless": 8844,
  " replacement": 8845,
  "conf": 8846,
  " Connect": 8847,
  " checks": 8848,
  "eries": 8849,
  " acknowledged": 8850,
  " Without": 8851,
  " barrel": 8852,
  "ounce": 8853,
  " instrument": 8854,
  " silver": 8855,
  " responses": 8856,
  " protecting": 8857,
  "backs": 8858,
  " Det": 8859,
  "\u0092": 8860,
  "2015": 8861,
  " copies": 8862,
  " breaks": 8863,
  " dad": 8864,
  " joke": 8865,
  "heim": 8866,
  " AC": 8867,
  " les": 8868,
  " mathem": 8869,
  " commonly": 8870,
  " Plus": 8871,
  " Marvel": 8872,
  " protein": 8873,
  "itage": 8874,
  "amacare": 8875,
  " lets": 8876,
  " legacy": 8877,
  " passengers": 8878,
  " yellow": 8879,
  "erted": 8880,
  "hop": 8881,
  "arre": 8882,
  " Buff": 8883,
  "alia": 8884,
  "Your": 8885,
  " Scient": 8886,
  " naturally": 8887,
  " nomination": 8888,
  "oded": 8889,
  "Source": 8890,
  " measured": 8891,
  "aping": 8892,
  " abandoned": 8893,
  " Use": 8894,
  "helsea": 8895,
  " Prince": 8896,
  " mad": 8897,
  " Lyn": 8898,
  " studied": 8899,
  "argo": 8900,
  "800": 8901,
  " diverse": 8902,
  "Cons": 8903,
  " blast": 8904,
  " Football": 8905,
  "yo": 8906,
  " funded": 8907,
  " acquired": 8908,
  " Marsh": 8909,
  "esty": 8910,
  "ieties": 8911,
  " \u2022": 8912,
  " headquarters": 8913,
  " (\u201c": 8914,
  " demonstrated": 8915,
  " soil": 8916,
  " tape": 8917,
  " rear": 8918,
  " midfield": 8919,
  " partnership": 8920,
  " stolen": 8921,
  " march": 8922,
  "hesis": 8923,
  " scan": 8924,
  " counts": 8925,
  " Atlantic": 8926,
  " upgrade": 8927,
  " NOT": 8928,
  " rom": 8929,
  "yer": 8930,
  " Aud": 8931,
  "dog": 8932,
  " Nev": 8933,
  " Cost": 8934,
  " ordinary": 8935,
  "aware": 8936,
  " stages": 8937,
  "63": 8938,
  " literature": 8939,
  " 1994": 8940,
  " assert": 8941,
  " scope": 8942,
  " arrive": 8943,
  "high": 8944,
  " AI": 8945,
  " plain": 8946,
  " helpful": 8947,
  " virus": 8948,
  " referendum": 8949,
  " exit": 8950,
  " ignored": 8951,
  " falls": 8952,
  "BM": 8953,
  "eters": 8954,
  "assador": 8955,
  " Gun": 8956,
  " twenty": 8957,
  " conservatives": 8958,
  " Master": 8959,
  " compe": 8960,
  " clock": 8961,
  " unions": 8962,
  " Trib": 8963,
  "inction": 8964,
  " Does": 8965,
  " rif": 8966,
  " inequ": 8967,
  " shopping": 8968,
  " Bron": 8969,
  " fro": 8970,
  " symp": 8971,
  " ax": 8972,
  " Dave": 8973,
  " capabilities": 8974,
  " festival": 8975,
  " waters": 8976,
  "lahoma": 8977,
  "zing": 8978,
  "iate": 8979,
  " Pop": 8980,
  " Hind": 8981,
  " Abb": 8982,
  " usage": 8983,
  " guitar": 8984,
  " Empire": 8985,
  " transactions": 8986,
  "aeda": 8987,
  "ington": 8988,
  " grid": 8989,
  " hoped": 8990,
  " Indiana": 8991,
  " distract": 8992,
  " Ast": 8993,
  " Eag": 8994,
  "encing": 8995,
  "VE": 8996,
  "iley": 8997,
  "ormal": 8998,
  "erg": 8999,
  " representing": 9000,
  "62": 9001,
  " assessment": 9002,
  " universities": 9003,
  " ramp": 9004,
  "ctic": 9005,
  "Facebook": 9006,
  " monitoring": 9007,
  " sty": 9008,
  "acket": 9009,
  " Prov": 9010,
  " moon": 9011,
  "ught": 9012,
  "bridge": 9013,
  " trave": 9014,
  " Death": 9015,
  "comes": 9016,
  "orge": 9017,
  " ratio": 9018,
  "door": 9019,
  " conventional": 9020,
  " tracking": 9021,
  "UST": 9022,
  " Set": 9023,
  " Sus": 9024,
  "61": 9025,
  "ntil": 9026,
  " hung": 9027,
  " skept": 9028,
  "shire": 9029,
  " tie": 9030,
  " proposals": 9031,
  "only": 9032,
  " Hell": 9033,
  " Sometimes": 9034,
  " reliable": 9035,
  " appearances": 9036,
  "uh": 9037,
  " racism": 9038,
  " replied": 9039,
  " Ros": 9040,
  " criticized": 9041,
  "rimin": 9042,
  "organ": 9043,
  "fund": 9044,
  " Ha": 9045,
  "dney": 9046,
  " appointed": 9047,
  " Bureau": 9048,
  "ecutive": 9049,
  " receiver": 9050,
  " insisted": 9051,
  "rite": 9052,
  "olph": 9053,
  " introduction": 9054,
  "ela": 9055,
  "agic": 9056,
  " 2020": 9057,
  " supplies": 9058,
  "cut": 9059,
  " Pass": 9060,
  " bub": 9061,
  " Line": 9062,
  "Ke": 9063,
  "made": 9064,
  " concrete": 9065,
  "omes": 9066,
  " performing": 9067,
  " exch": 9068,
  " beauty": 9069,
  " visiting": 9070,
  " Technology": 9071,
  "ji": 9072,
  "ocument": 9073,
  " letting": 9074,
  "EE": 9075,
  "HT": 9076,
  " Capt": 9077,
  "theless": 9078,
  "RL": 9079,
  " Denver": 9080,
  " swim": 9081,
  "AND": 9082,
  " Orig": 9083,
  " programme": 9084,
  " Sweden": 9085,
  " absor": 9086,
  " classified": 9087,
  " deficit": 9088,
  " blocked": 9089,
  " accomplish": 9090,
  " presidency": 9091,
  " auto": 9092,
  " Galaxy": 9093,
  " render": 9094,
  "crib": 9095,
  " Portland": 9096,
  "archy": 9097,
  " Utah": 9098,
  " drove": 9099,
  " Jam": 9100,
  " cance": 9101,
  " landscape": 9102,
  " LA": 9103,
  " dust": 9104,
  " dismissed": 9105,
  "har": 9106,
  "plus": 9107,
  " Tour": 9108,
  " hyper": 9109,
  " abroad": 9110,
  " bonus": 9111,
  " senator": 9112,
  " sequence": 9113,
  "iano": 9114,
  " Associated": 9115,
  " predicted": 9116,
  " museum": 9117,
  " domain": 9118,
  " warn": 9119,
  " hockey": 9120,
  " Ontario": 9121,
  " Code": 9122,
  " dub": 9123,
  " requested": 9124,
  " Age": 9125,
  " rocket": 9126,
  " Corpor": 9127,
  " ec": 9128,
  "NS": 9129,
  " dates": 9130,
  "aga": 9131,
  " trigger": 9132,
  " transit": 9133,
  "\u00b0": 9134,
  "acco": 9135,
  " persons": 9136,
  " artific": 9137,
  "\u043b": 9138,
  " testimony": 9139,
  " centers": 9140,
  " spokeswoman": 9141,
  " ves": 9142,
  " entitled": 9143,
  " patch": 9144,
  "ultane": 9145,
  "irts": 9146,
  " congressional": 9147,
  " Alexander": 9148,
  "mony": 9149,
  " Cooper": 9150,
  " Nintendo": 9151,
  " Front": 9152,
  " rescue": 9153,
  " Bon": 9154,
  " assign": 9155,
  " documentary": 9156,
  " veterans": 9157,
  " urged": 9158,
  "king": 9159,
  " clar": 9160,
  " equality": 9161,
  "fol": 9162,
  " bread": 9163,
  " Olympic": 9164,
  "pton": 9165,
  "ais": 9166,
  " breath": 9167,
  "93": 9168,
  " recall": 9169,
  " Low": 9170,
  " populations": 9171,
  " \u201d": 9172,
  "Still": 9173,
  "94": 9174,
  "rooms": 9175,
  "92": 9176,
  " wider": 9177,
  "ounding": 9178,
  "izabeth": 9179,
  " tactics": 9180,
  " Kar": 9181,
  "through": 9182,
  " whenever": 9183,
  "71": 9184,
  " violation": 9185,
  "Yet": 9186,
  "Are": 9187,
  " targeting": 9188,
  " pursue": 9189,
  " Mill": 9190,
  " salt": 9191,
  "inating": 9192,
  " firing": 9193,
  "\">": 9194,
  "Comp": 9195,
  "73": 9196,
  "don": 9197,
  "orous": 9198,
  "ennis": 9199,
  " compare": 9200,
  " restaurants": 9201,
  "fare": 9202,
  " acid": 9203,
  " wedd": 9204,
  " employed": 9205,
  " Bible": 9206,
  " mole": 9207,
  " Form": 9208,
  " Roberts": 9209,
  " politically": 9210,
  "atar": 9211,
  " satellite": 9212,
  " retirement": 9213,
  " phrase": 9214,
  " contrad": 9215,
  "isons": 9216,
  " Beijing": 9217,
  " Mach": 9218,
  " soccer": 9219,
  "enez": 9220,
  " Girl": 9221,
  " prisoners": 9222,
  " survival": 9223,
  " brilliant": 9224,
  " banking": 9225,
  "they": 9226,
  " experiments": 9227,
  " cig": 9228,
  " Justin": 9229,
  " Cro": 9230,
  " channels": 9231,
  " servers": 9232,
  "trans": 9233,
  "aver": 9234,
  "jud": 9235,
  " introduce": 9236,
  " fighter": 9237,
  " List": 9238,
  "rapped": 9239,
  "OK": 9240,
  " WH": 9241,
  " Liverpool": 9242,
  " scientist": 9243,
  " approached": 9244,
  "afe": 9245,
  "usalem": 9246,
  " monthly": 9247,
  " Award": 9248,
  " submit": 9249,
  "600": 9250,
  " YOU": 9251,
  " quote": 9252,
  " representatives": 9253,
  " titled": 9254,
  "olves": 9255,
  "ordinary": 9256,
  " designs": 9257,
  " investigations": 9258,
  " popularity": 9259,
  " cul": 9260,
  " Bridge": 9261,
  " abilities": 9262,
  "Though": 9263,
  " membership": 9264,
  "oenix": 9265,
  " saving": 9266,
  " bab": 9267,
  " focusing": 9268,
  "mans": 9269,
  " hosp": 9270,
  " rush": 9271,
  " shadow": 9272,
  " Maryland": 9273,
  "berry": 9274,
  " pipeline": 9275,
  "pa": 9276,
  " Governor": 9277,
  "ouri": 9278,
  "bow": 9279,
  " Ted": 9280,
  "erts": 9281,
  "David": 9282,
  " PD": 9283,
  " Hur": 9284,
  "emed": 9285,
  " prepar": 9286,
  " objective": 9287,
  " Was": 9288,
  " Base": 9289,
  " entreprene": 9290,
  " tips": 9291,
  "ederation": 9292,
  " thorough": 9293,
  " Dutch": 9294,
  " ratings": 9295,
  " childhood": 9296,
  "enter": 9297,
  "break": 9298,
  " Vill": 9299,
  "asty": 9300,
  " pig": 9301,
  " mit": 9302,
  "was": 9303,
  " Harvard": 9304,
  " actively": 9305,
  "ika": 9306,
  " Som": 9307,
  " loose": 9308,
  " demanding": 9309,
  " unexpected": 9310,
  " smoking": 9311,
  " forecast": 9312,
  " Beck": 9313,
  " overseas": 9314,
  "CO": 9315,
  " universal": 9316,
  " smell": 9317,
  " deny": 9318,
  "mers": 9319,
  " phenomenon": 9320,
  " argues": 9321,
  " Bra": 9322,
  "olds": 9323,
  "walk": 9324,
  " weekly": 9325,
  " preparing": 9326,
  "\u0103": 9327,
  " PA": 9328,
  " deadly": 9329,
  " settled": 9330,
  " mortg": 9331,
  " generations": 9332,
  " chicken": 9333,
  "minute": 9334,
  " producers": 9335,
  " Click": 9336,
  " smartphone": 9337,
  " Ur": 9338,
  " legislative": 9339,
  " innocent": 9340,
  "Dem": 9341,
  " disturb": 9342,
  " Have": 9343,
  " butt": 9344,
  " 95": 9345,
  "iki": 9346,
  " DO": 9347,
  "ompson": 9348,
  " celebrate": 9349,
  " provision": 9350,
  " keys": 9351,
  "agh": 9352,
  " anxiety": 9353,
  "ded": 9354,
  " questioned": 9355,
  "held": 9356,
  " shame": 9357,
  " Cow": 9358,
  " 53": 9359,
  " forcing": 9360,
  " broader": 9361,
  " Design": 9362,
  " Hop": 9363,
  " arguing": 9364,
  " encounter": 9365,
  " mac": 9366,
  " flags": 9367,
  " weigh": 9368,
  " fur": 9369,
  "SL": 9370,
  " fool": 9371,
  " tens": 9372,
  " Obamacare": 9373,
  "ocolate": 9374,
  "oz": 9375,
  " reverse": 9376,
  "84": 9377,
  " mos": 9378,
  " unpre": 9379,
  " wealthy": 9380,
  " Edward": 9381,
  " ~": 9382,
  " Among": 9383,
  " maintained": 9384,
  "oret": 9385,
  "isa": 9386,
  " surely": 9387,
  "aved": 9388,
  " Prop": 9389,
  " secondary": 9390,
  " savings": 9391,
  " tab": 9392,
  " shield": 9393,
  " roof": 9394,
  "elson": 9395,
  "irlf": 9396,
  "Sim": 9397,
  " civilian": 9398,
  "El": 9399,
  " reveals": 9400,
  " stability": 9401,
  " mini": 9402,
  " tonight": 9403,
  " Carter": 9404,
  "mind": 9405,
  "\\u00e2\\u0094": 9406,
  " alarm": 9407,
  " anniversary": 9408,
  " sorts": 9409,
  " rooms": 9410,
  " Ak": 9411,
  "vernment": 9412,
  "inals": 9413,
  " prosecutors": 9414,
  " Gulf": 9415,
  " disorder": 9416,
  " healthcare": 9417,
  " releases": 9418,
  " outrage": 9419,
  "irlfriend": 9420,
  "orious": 9421,
  "isk": 9422,
  " Left": 9423,
  " Hon": 9424,
  "ois": 9425,
  " info": 9426,
  " lunch": 9427,
  " relax": 9428,
  " shr": 9429,
  " differently": 9430,
  " exha": 9431,
  " harassment": 9432,
  " submitted": 9433,
  " okay": 9434,
  " quoted": 9435,
  " threatening": 9436,
  " windows": 9437,
  "rection": 9438,
  " arbit": 9439,
  " reforms": 9440,
  " stored": 9441,
  " fate": 9442,
  " Run": 9443,
  " torture": 9444,
  "step": 9445,
  " spots": 9446,
  " odds": 9447,
  " rounds": 9448,
  " propaganda": 9449,
  "itter": 9450,
  "tenance": 9451,
  " Belg": 9452,
  " instructions": 9453,
  " 1992": 9454,
  " hydro": 9455,
  " Oklahoma": 9456,
  " sevent": 9457,
  " Vietnam": 9458,
  "acts": 9459,
  "icism": 9460,
  "ailed": 9461,
  "ested": 9462,
  "GA": 9463,
  " affordable": 9464,
  " aer": 9465,
  " delic": 9466,
  " graduate": 9467,
  " silence": 9468,
  " Liberal": 9469,
  " circle": 9470,
  "html": 9471,
  " errors": 9472,
  " Sab": 9473,
  " Graham": 9474,
  " Warren": 9475,
  "aa": 9476,
  "orship": 9477,
  " picks": 9478,
  " Expl": 9479,
  " cooperation": 9480,
  " Bloom": 9481,
  " Fall": 9482,
  " streaming": 9483,
  " striking": 9484,
  " sear": 9485,
  "itary": 9486,
  "sect": 9487,
  " Sarah": 9488,
  "Watch": 9489,
  " persu": 9490,
  " Ruby": 9491,
  " execution": 9492,
  " comprehensive": 9493,
  " fing": 9494,
  " puzz": 9495,
  " importantly": 9496,
  " struggled": 9497,
  " possess": 9498,
  "lined": 9499,
  " intim": 9500,
  " cow": 9501,
  "rows": 9502,
  " assass": 9503,
  "uten": 9504,
  " Silver": 9505,
  " landing": 9506,
  " gent": 9507,
  "race": 9508,
  " Leader": 9509,
  "ahu": 9510,
  " Price": 9511,
  " Person": 9512,
  "Reuters": 9513,
  " deserve": 9514,
  " ceremony": 9515,
  " assumed": 9516,
  "ishop": 9517,
  " Jerusalem": 9518,
  " calm": 9519,
  " alter": 9520,
  "Ty": 9521,
  " difficulty": 9522,
  " demonstrate": 9523,
  " pron": 9524,
  " waves": 9525,
  " chest": 9526,
  " ages": 9527,
  " Lt": 9528,
  "83": 9529,
  " hal": 9530,
  " dying": 9531,
  " distingu": 9532,
  "ethe": 9533,
  " stepped": 9534,
  " kilomet": 9535,
  " borders": 9536,
  "asury": 9537,
  " adventure": 9538,
  " architecture": 9539,
  " pointing": 9540,
  " Netflix": 9541,
  " Wolf": 9542,
  "ierce": 9543,
  " autonom": 9544,
  "eals": 9545,
  "essee": 9546,
  " tremend": 9547,
  " consent": 9548,
  "atern": 9549,
  " dialogue": 9550,
  "ova": 9551,
  " Deb": 9552,
  "bury": 9553,
  " consideration": 9554,
  " greatly": 9555,
  " Meanwhile": 9556,
  " precisely": 9557,
  " Bud": 9558,
  " Ten": 9559,
  " promising": 9560,
  " Main": 9561,
  "asant": 9562,
  " newsletter": 9563,
  " repeat": 9564,
  " drives": 9565,
  " Story": 9566,
  " awarded": 9567,
  " contribution": 9568,
  " rookie": 9569,
  "iev": 9570,
  "party": 9571,
  "itol": 9572,
  "after": 9573,
  " burning": 9574,
  " Tele": 9575,
  " Tech": 9576,
  " Bruce": 9577,
  " Scottish": 9578,
  " simultane": 9579,
  " frequency": 9580,
  " analyst": 9581,
  " Vice": 9582,
  " Indust": 9583,
  " donations": 9584,
  " interf": 9585,
  " Magic": 9586,
  "akh": 9587,
  " voices": 9588,
  "ceptions": 9589,
  " Common": 9590,
  " gif": 9591,
  " playoffs": 9592,
  " wanting": 9593,
  " Pres": 9594,
  " procedure": 9595,
  " executives": 9596,
  " staying": 9597,
  "izer": 9598,
  "oice": 9599,
  "lee": 9600,
  "apolis": 9601,
  " trillion": 9602,
  " Az": 9603,
  " inches": 9604,
  " birds": 9605,
  " Hong": 9606,
  " knee": 9607,
  " bias": 9608,
  "VD": 9609,
  "EX": 9610,
  " highlights": 9611,
  " remarkable": 9612,
  " Palestinians": 9613,
  " Jonathan": 9614,
  " semi": 9615,
  "omy": 9616,
  "holders": 9617,
  "ributes": 9618,
  "open": 9619,
  "raig": 9620,
  "scribe": 9621,
  " implications": 9622,
  "div": 9623,
  " ans": 9624,
  " superior": 9625,
  "itual": 9626,
  " whereas": 9627,
  " Sydney": 9628,
  "Story": 9629,
  " strategies": 9630,
  " Berlin": 9631,
  " formation": 9632,
  "Step": 9633,
  "portation": 9634,
  " Link": 9635,
  " followers": 9636,
  " contacted": 9637,
  "rif": 9638,
  "stal": 9639,
  " categories": 9640,
  " MORE": 9641,
  " fet": 9642,
  " Ark": 9643,
  " smile": 9644,
  "igious": 9645,
  "onder": 9646,
  "Ms": 9647,
  " 54": 9648,
  " judgment": 9649,
  " cream": 9650,
  " emerging": 9651,
  "->": 9652,
  "yes": 9653,
  "omed": 9654,
  "bered": 9655,
  "iffs": 9656,
  "js": 9657,
  "vision": 9658,
  "hatt": 9659,
  "annon": 9660,
  " assigned": 9661,
  "vertisements": 9662,
  " accessible": 9663,
  " Andre": 9664,
  "FO": 9665,
  " crimin": 9666,
  " ministry": 9667,
  " defeated": 9668,
  " physically": 9669,
  " spell": 9670,
  " stem": 9671,
  " managing": 9672,
  " guidelines": 9673,
  " wounded": 9674,
  "cest": 9675,
  " trials": 9676,
  " Eff": 9677,
  " grade": 9678,
  "Christ": 9679,
  " coinc": 9680,
  " pharm": 9681,
  " opens": 9682,
  " centuries": 9683,
  " Affairs": 9684,
  " indicates": 9685,
  "TP": 9686,
  " riding": 9687,
  "aki": 9688,
  " clothing": 9689,
  " meaningful": 9690,
  " Mrs": 9691,
  "lla": 9692,
  " tiss": 9693,
  "erent": 9694,
  " ease": 9695,
  " Store": 9696,
  "cedented": 9697,
  " Six": 9698,
  " Capital": 9699,
  " Yemen": 9700,
  "aria": 9701,
  "child": 9702,
  " poison": 9703,
  " margin": 9704,
  " revers": 9705,
  " Tes": 9706,
  " participation": 9707,
  "Mus": 9708,
  " CS": 9709,
  " Brexit": 9710,
  " 120": 9711,
  " memories": 9712,
  "umble": 9713,
  "author": 9714,
  " recipe": 9715,
  " gross": 9716,
  " bin": 9717,
  " \u2212": 9718,
  " theories": 9719,
  " lapt": 9720,
  " competing": 9721,
  " passage": 9722,
  "hard": 9723,
  " drone": 9724,
  " Credit": 9725,
  "van": 9726,
  " Chelsea": 9727,
  "91": 9728,
  "sl": 9729,
  " facilit": 9730,
  " aged": 9731,
  " 1993": 9732,
  "TER": 9733,
  " damaged": 9734,
  "base": 9735,
  " dispute": 9736,
  " blank": 9737,
  " Lam": 9738,
  " Instagram": 9739,
  " hosted": 9740,
  " promoting": 9741,
  " Hamilton": 9742,
  " openly": 9743,
  "Google": 9744,
  " 1950": 9745,
  "eremy": 9746,
  "bits": 9747,
  " substance": 9748,
  "View": 9749,
  " Children": 9750,
  " Crime": 9751,
  " Hold": 9752,
  " Vik": 9753,
  " clinical": 9754,
  "Out": 9755,
  "even": 9756,
  " Hawai": 9757,
  " Leon": 9758,
  " nic": 9759,
  " Fal": 9760,
  " investments": 9761,
  " GT": 9762,
  "ses": 9763,
  " educational": 9764,
  " consensus": 9765,
  "week": 9766,
  " custody": 9767,
  "adi": 9768,
  "igate": 9769,
  " dish": 9770,
  " Pict": 9771,
  "ito": 9772,
  " manifest": 9773,
  " gate": 9774,
  "const": 9775,
  "82": 9776,
  " missions": 9777,
  " eligible": 9778,
  " ?": 9779,
  " legally": 9780,
  " endorse": 9781,
  "Hz": 9782,
  " studying": 9783,
  " charity": 9784,
  " memo": 9785,
  " tables": 9786,
  " nin": 9787,
  "eria": 9788,
  " discount": 9789,
  "aration": 9790,
  " battles": 9791,
  " addresses": 9792,
  " Wales": 9793,
  " Assembly": 9794,
  "ALL": 9795,
  " inspect": 9796,
  " suspects": 9797,
  " dating": 9798,
  "left": 9799,
  "iac": 9800,
  " 250": 9801,
  " helic": 9802,
  " fossil": 9803,
  " na": 9804,
  " Trade": 9805,
  "Pre": 9806,
  " athletes": 9807,
  " counterpart": 9808,
  " tired": 9809,
  " enthusi": 9810,
  " Der": 9811,
  " Station": 9812,
  "rix": 9813,
  " Eth": 9814,
  " Management": 9815,
  "gered": 9816,
  " lux": 9817,
  "achel": 9818,
  "Act": 9819,
  " spectrum": 9820,
  "arts": 9821,
  "riors": 9822,
  " Metro": 9823,
  "ateral": 9824,
  " bottle": 9825,
  " Sean": 9826,
  " Bal": 9827,
  " tap": 9828,
  "Def": 9829,
  " presentation": 9830,
  " vig": 9831,
  " Tok": 9832,
  " enhance": 9833,
  "assy": 9834,
  " fundra": 9835,
  " dominant": 9836,
  " Uber": 9837,
  "market": 9838,
  " perceived": 9839,
  " backing": 9840,
  " Exper": 9841,
  " therapy": 9842,
  " Festival": 9843,
  " discussing": 9844,
  "uz": 9845,
  " Through": 9846,
  " Equ": 9847,
  " transaction": 9848,
  " expanding": 9849,
  " burden": 9850,
  " beings": 9851,
  " defending": 9852,
  " stops": 9853,
  " muscle": 9854,
  " underlying": 9855,
  "math": 9856,
  " racing": 9857,
  " Marx": 9858,
  "Cal": 9859,
  "ylum": 9860,
  " mood": 9861,
  " 99": 9862,
  " picking": 9863,
  " recruit": 9864,
  "itudes": 9865,
  "81": 9866,
  " Gary": 9867,
  "lando": 9868,
  "acher": 9869,
  "angle": 9870,
  "orable": 9871,
  " gathering": 9872,
  " hopefully": 9873,
  " Batman": 9874,
  " managers": 9875,
  " Video": 9876,
  "player": 9877,
  "alysis": 9878,
  " Libya": 9879,
  " impression": 9880,
  " crus": 9881,
  "igenous": 9882,
  "\u00e2": 9883,
  " roy": 9884,
  " Son": 9885,
  "section": 9886,
  " institution": 9887,
  " foods": 9888,
  " stere": 9889,
  " Tai": 9890,
  " scrut": 9891,
  " hip": 9892,
  "\u00f1": 9893,
  "ptions": 9894,
  " procedures": 9895,
  " creatures": 9896,
  " pocket": 9897,
  " arrival": 9898,
  " compat": 9899,
  "watch": 9900,
  " Pentagon": 9901,
  " recre": 9902,
  "ocial": 9903,
  " eager": 9904,
  " organic": 9905,
  "olar": 9906,
  "oln": 9907,
  " kitchen": 9908,
  "}}": 9909,
  "iture": 9910,
  " surviv": 9911,
  " 56": 9912,
  " insult": 9913,
  " Boe": 9914,
  " Elizabeth": 9915,
  " unfair": 9916,
  " pollution": 9917,
  "roph": 9918,
  " mice": 9919,
  " timing": 9920,
  " shipping": 9921,
  " Morgan": 9922,
  "sa": 9923,
  "sub": 9924,
  " requirement": 9925,
  "odox": 9926,
  "aders": 9927,
  " diseases": 9928,
  " beach": 9929,
  " Represent": 9930,
  "Mod": 9931,
  " Op": 9932,
  " capitalism": 9933,
  " Assad": 9934,
  " MLS": 9935,
  "atively": 9936,
  "bing": 9937,
  "Rem": 9938,
  " helicop": 9939,
  "dy": 9940,
  " divor": 9941,
  " Mess": 9942,
  " industries": 9943,
  " Murray": 9944,
  " bowl": 9945,
  " Creat": 9946,
  " fled": 9947,
  " Oakland": 9948,
  " sed": 9949,
  " shell": 9950,
  "agger": 9951,
  "abet": 9952,
  " punishment": 9953,
  " hospitals": 9954,
  " tons": 9955,
  "AF": 9956,
  "missions": 9957,
  "***": 9958,
  " Kick": 9959,
  " seed": 9960,
  " coaching": 9961,
  " engineers": 9962,
  "AY": 9963,
  "opyright": 9964,
  " hire": 9965,
  "ogy": 9966,
  " Comey": 9967,
  " statist": 9968,
  "TR": 9969,
  " module": 9970,
  "amous": 9971,
  " obsc": 9972,
  "SC": 9973,
  " graphics": 9974,
  " answered": 9975,
  "Click": 9976,
  " Friend": 9977,
  "rac": 9978,
  "rior": 9979,
  "oca": 9980,
  " regulatory": 9981,
  "Reg": 9982,
  " stance": 9983,
  "alties": 9984,
  " sovere": 9985,
  " tut": 9986,
  " Keep": 9987,
  " explaining": 9988,
  " Email": 9989,
  " rhetoric": 9990,
  " beating": 9991,
  "emic": 9992,
  " bow": 9993,
  " Michel": 9994,
  " Yeah": 9995,
  " acknowledge": 9996,
  " signature": 9997,
  " principal": 9998,
  " pulling": 9999,
  " Mit": 10000,
  "brid": 10001,
  "erves": 10002,
  " convince": 10003,
  "olving": 10004,
  " Thompson": 10005,
  "cosystem": 10006,
  " Roll": 10007,
  "duction": 10008,
  " merch": 10009,
  " searching": 10010,
  " pill": 10011,
  " !": 10012,
  " overcome": 10013,
  " Russell": 10014,
  " dies": 10015,
  " trends": 10016,
  " preferred": 10017,
  " sixth": 10018,
  " adviser": 10019,
  " Tennessee": 10020,
  " periods": 10021,
  " variable": 10022,
  "Ge": 10023,
  "Mich": 10024,
  " rebels": 10025,
  " Ox": 10026,
  " interaction": 10027,
  " Yan": 10028,
  " Sure": 10029,
  " (\"": 10030,
  " psychological": 10031,
  " Using": 10032,
  " outlets": 10033,
  " Charlie": 10034,
  " economics": 10035,
  " billions": 10036,
  " lineup": 10037,
  " tempor": 10038,
  " Intel": 10039,
  " math": 10040,
  " signals": 10041,
  " Bi": 10042,
  " echo": 10043,
  " Kentucky": 10044,
  " Executive": 10045,
  " eggs": 10046,
  "kee": 10047,
  " rend": 10048,
  " Gil": 10049,
  "pg": 10050,
  "Finally": 10051,
  " setup": 10052,
  " sentenced": 10053,
  "mic": 10054,
  " segment": 10055,
  "ui": 10056,
  " 1991": 10057,
  " everyday": 10058,
  " badly": 10059,
  " arr": 10060,
  " Dragon": 10061,
  " Li": 10062,
  " Holl": 10063,
  " commander": 10064,
  "netic": 10065,
  "2013": 10066,
  "unicipal": 10067,
  " loves": 10068,
  " AN": 10069,
  " bullet": 10070,
  "will": 10071,
  " gig": 10072,
  "NBC": 10073,
  " escal": 10074,
  " requiring": 10075,
  " genes": 10076,
  "ds": 10077,
  " invasion": 10078,
  " bold": 10079,
  " Jean": 10080,
  " removal": 10081,
  " upload": 10082,
  "check": 10083,
  " partly": 10084,
  "enezuel": 10085,
  "Comm": 10086,
  " instant": 10087,
  " undert": 10088,
  " inquiry": 10089,
  "liest": 10090,
  " weakness": 10091,
  " amendment": 10092,
  " arts": 10093,
  " Iron": 10094,
  " Hart": 10095,
  " topics": 10096,
  "PL": 10097,
  "arted": 10098,
  " Rather": 10099,
  "has": 10100,
  "Earlier": 10101,
  " McK": 10102,
  " gene": 10103,
  "news": 10104,
  " concepts": 10105,
  "grade": 10106,
  " Ze": 10107,
  "izza": 10108,
  " shoes": 10109,
  " Sound": 10110,
  " frequent": 10111,
  "tsburgh": 10112,
  " fabric": 10113,
  " Delhi": 10114,
  " fo": 10115,
  " migrants": 10116,
  " Clark": 10117,
  " occurs": 10118,
  " sections": 10119,
  "eness": 10120,
  " Finally": 10121,
  " engineer": 10122,
  "oli": 10123,
  " compensation": 10124,
  " attractive": 10125,
  " Box": 10126,
  " unve": 10127,
  " lad": 10128,
  " citing": 10129,
  "instein": 10130,
  " tweets": 10131,
  "\u2010": 10132,
  " blockchain": 10133,
  "arency": 10134,
  " ).": 10135,
  "cor": 10136,
  " ridiculous": 10137,
  " cler": 10138,
  " utility": 10139,
  " posting": 10140,
  " speaker": 10141,
  " genre": 10142,
  " corrupt": 10143,
  " BM": 10144,
  " talented": 10145,
  " rolling": 10146,
  " carries": 10147,
  " mask": 10148,
  "via": 10149,
  " elder": 10150,
  " notable": 10151,
  "screen": 10152,
  " Final": 10153,
  " collaps": 10154,
  "gus": 10155,
  " deadline": 10156,
  " Therefore": 10157,
  " diam": 10158,
  " lect": 10159,
  "necess": 10160,
  "ental": 10161,
  " cens": 10162,
  "Top": 10163,
  " Ve": 10164,
  " sits": 10165,
  " Priv": 10166,
  " approaches": 10167,
  " analysts": 10168,
  " eliminate": 10169,
  " colour": 10170,
  "State": 10171,
  " ET": 10172,
  " publishing": 10173,
  " unprecedented": 10174,
  " instances": 10175,
  "VP": 10176,
  " toxic": 10177,
  " roots": 10178,
  " Simon": 10179,
  " neighbors": 10180,
  " bene": 10181,
  " collaboration": 10182,
  " Phoenix": 10183,
  "\u0627": 10184,
  " prize": 10185,
  " arc": 10186,
  " Gordon": 10187,
  " insight": 10188,
  " homosexual": 10189,
  "\u2500": 10190,
  " cock": 10191,
  " towns": 10192,
  " Harper": 10193,
  " dramatically": 10194,
  " inequality": 10195,
  " Phill": 10196,
  " Psych": 10197,
  " extraordinary": 10198,
  "owski": 10199,
  " perception": 10200,
  " maintenance": 10201,
  " Whether": 10202,
  "rowing": 10203,
  " Event": 10204,
  " coup": 10205,
  " Sav": 10206,
  "pack": 10207,
  " gest": 10208,
  "Mark": 10209,
  " associate": 10210,
  " cheaper": 10211,
  " parad": 10212,
  " Gro": 10213,
  " Below": 10214,
  "isdom": 10215,
  "arget": 10216,
  " sheet": 10217,
  " Bow": 10218,
  " Captain": 10219,
  " interviewed": 10220,
  " dreams": 10221,
  " GO": 10222,
  " deployed": 10223,
  " encouraging": 10224,
  " seized": 10225,
  " violations": 10226,
  " Pers": 10227,
  " buck": 10228,
  " cognitive": 10229,
  " camps": 10230,
  " aims": 10231,
  " 57": 10232,
  " comics": 10233,
  " reserved": 10234,
  " Reagan": 10235,
  " constitu": 10236,
  " mystery": 10237,
  " loop": 10238,
  "Paul": 10239,
  "atus": 10240,
  " employers": 10241,
  " Sa": 10242,
  " displayed": 10243,
  " functional": 10244,
  "AB": 10245,
  " span": 10246,
  "iban": 10247,
  "ixture": 10248,
  " traged": 10249,
  " delight": 10250,
  " occasionally": 10251,
  "cre": 10252,
  " Economic": 10253,
  "TON": 10254,
  " birthday": 10255,
  " fatal": 10256,
  " heroes": 10257,
  " export": 10258,
  " vend": 10259,
  "apore": 10260,
  " glad": 10261,
  "ricane": 10262,
  "estyle": 10263,
  " Stew": 10264,
  " prompted": 10265,
  "mir": 10266,
  "oga": 10267,
  " correctly": 10268,
  " Cole": 10269,
  "endar": 10270,
  " contemporary": 10271,
  "vi": 10272,
  "wa": 10273,
  " bell": 10274,
  " diplomatic": 10275,
  "oting": 10276,
  " stamp": 10277,
  "elle": 10278,
  " prospects": 10279,
  " Access": 10280,
  " constitution": 10281,
  "rock": 10282,
  "ighth": 10283,
  " Staff": 10284,
  "throp": 10285,
  " Jenn": 10286,
  " Ever": 10287,
  "eling": 10288,
  " parallel": 10289,
  " exclud": 10290,
  " disappointed": 10291,
  " irre": 10292,
  " recommendations": 10293,
  " manufacturers": 10294,
  " pa": 10295,
  " moderate": 10296,
  " Montreal": 10297,
  " intr": 10298,
  " adequ": 10299,
  "Time": 10300,
  "onz": 10301,
  " Dick": 10302,
  " accompan": 10303,
  " ecosystem": 10304,
  " 85": 10305,
  " Library": 10306,
  " Dog": 10307,
  " Photos": 10308,
  " nose": 10309,
  " demanded": 10310,
  " GDP": 10311,
  " Tax": 10312,
  "ailable": 10313,
  " interpre": 10314,
  " Brooklyn": 10315,
  "2017": 10316,
  " pleased": 10317,
  " fights": 10318,
  " labour": 10319,
  " Est": 10320,
  " Ocean": 10321,
  " lifetime": 10322,
  " 58": 10323,
  " knock": 10324,
  " modified": 10325,
  " communicate": 10326,
  " wedding": 10327,
  "leans": 10328,
  " sessions": 10329,
  " EPA": 10330,
  " repair": 10331,
  " biological": 10332,
  " drunk": 10333,
  " Reserve": 10334,
  " landed": 10335,
  " explosion": 10336,
  " Authority": 10337,
  " Bol": 10338,
  " Given": 10339,
  "ixon": 10340,
  " representation": 10341,
  " artificial": 10342,
  " subsc": 10343,
  "agen": 10344,
  " Antonio": 10345,
  "Fi": 10346,
  "fit": 10347,
  "250": 10348,
  " owns": 10349,
  " lift": 10350,
  " designer": 10351,
  " relation": 10352,
  "incoln": 10353,
  "rot": 10354,
  " Order": 10355,
  " Digital": 10356,
  " Khan": 10357,
  "Thanks": 10358,
  "\":\"": 10359,
  " imposed": 10360,
  " emp": 10361,
  " recon": 10362,
  " defender": 10363,
  "hist": 10364,
  " guests": 10365,
  " kicked": 10366,
  " lessons": 10367,
  " consciousness": 10368,
  " hanging": 10369,
  " adopt": 10370,
  " concerning": 10371,
  " sli": 10372,
  "acre": 10373,
  " Five": 10374,
  " maintaining": 10375,
  " pregnant": 10376,
  " Alan": 10377,
  "wind": 10378,
  " underground": 10379,
  " anonymous": 10380,
  "150": 10381,
  "wed": 10382,
  " ingredients": 10383,
  "graph": 10384,
  " punch": 10385,
  "bourne": 10386,
  " Bul": 10387,
  " asset": 10388,
  " shirt": 10389,
  "ols": 10390,
  " Burn": 10391,
  " intellig": 10392,
  " cheese": 10393,
  " Rome": 10394,
  " podcast": 10395,
  "Update": 10396,
  " Channel": 10397,
  " interior": 10398,
  " Convention": 10399,
  " lesson": 10400,
  " oppose": 10401,
  "isition": 10402,
  " emotions": 10403,
  " creature": 10404,
  "human": 10405,
  " volunteers": 10406,
  " summit": 10407,
  " couples": 10408,
  " resolve": 10409,
  "ching": 10410,
  " shocked": 10411,
  "Whe": 10412,
  " abstract": 10413,
  "Dis": 10414,
  "some": 10415,
  " performances": 10416,
  " Argent": 10417,
  " SU": 10418,
  " logo": 10419,
  " soldier": 10420,
  " vocal": 10421,
  " Page": 10422,
  " stimul": 10423,
  "appropri": 10424,
  " terr": 10425,
  " girlfriend": 10426,
  "\u0443": 10427,
  " Protection": 10428,
  "istant": 10429,
  " Fant": 10430,
  " accum": 10431,
  "ben": 10432,
  " annoy": 10433,
  " jumped": 10434,
  " Dur": 10435,
  " mile": 10436,
  " militants": 10437,
  " nurs": 10438,
  " guid": 10439,
  "SE": 10440,
  "ulty": 10441,
  "acles": 10442,
  "user": 10443,
  " Lear": 10444,
  " jihad": 10445,
  "ials": 10446,
  "Instead": 10447,
  " swit": 10448,
  " professionals": 10449,
  "\\u00e0\\u00a4": 10450,
  " Missouri": 10451,
  "Gener": 10452,
  " Anna": 10453,
  " traveling": 10454,
  " butter": 10455,
  "ikh": 10456,
  " refers": 10457,
  " libr": 10458,
  "dr": 10459,
  " desktop": 10460,
  " recalled": 10461,
  "gets": 10462,
  "(\"": 10463,
  " Coal": 10464,
  " isolated": 10465,
  " advocate": 10466,
  " existed": 10467,
  " Orleans": 10468,
  " Lim": 10469,
  " opposing": 10470,
  "Next": 10471,
  "Israel": 10472,
  " forum": 10473,
  " Case": 10474,
  "gate": 10475,
  "\u2026.": 10476,
  " boxes": 10477,
  " Han": 10478,
  " integration": 10479,
  " describing": 10480,
  " 600": 10481,
  "Station": 10482,
  "early": 10483,
  " peaceful": 10484,
  " JavaScript": 10485,
  " Hal": 10486,
  " Mail": 10487,
  " stro": 10488,
  " confused": 10489,
  "tainment": 10490,
  " minimal": 10491,
  "umph": 10492,
  " SD": 10493,
  " Custom": 10494,
  "CD": 10495,
  " inherent": 10496,
  " Capitol": 10497,
  "odge": 10498,
  "cal": 10499,
  " vert": 10500,
  " meal": 10501,
  "hattan": 10502,
  "owned": 10503,
  " surrounded": 10504,
  "abe": 10505,
  " Hand": 10506,
  "hero": 10507,
  "commun": 10508,
  " Player": 10509,
  " holes": 10510,
  " integrity": 10511,
  " Ban": 10512,
  " 1989": 10513,
  " pm": 10514,
  " inspiration": 10515,
  " configuration": 10516,
  " Marine": 10517,
  " Rs": 10518,
  " sne": 10519,
  " Trust": 10520,
  " ideology": 10521,
  " Know": 10522,
  " expense": 10523,
  "\\u00f0\\u009f": 10524,
  " Barb": 10525,
  " silent": 10526,
  " subur": 10527,
  " CB": 10528,
  "\u00e7": 10529,
  " electoral": 10530,
  " Non": 10531,
  " yell": 10532,
  " Doctor": 10533,
  " buried": 10534,
  "iens": 10535,
  "Trans": 10536,
  " credits": 10537,
  " desperate": 10538,
  " Nevada": 10539,
  " suspic": 10540,
  " choosing": 10541,
  "imize": 10542,
  "\u043a": 10543,
  " clip": 10544,
  "starter": 10545,
  " dual": 10546,
  "TE": 10547,
  " stack": 10548,
  " scream": 10549,
  " teammates": 10550,
  "ibl": 10551,
  " Occ": 10552,
  " Orlando": 10553,
  "tra": 10554,
  " bombs": 10555,
  "Gu": 10556,
  " convert": 10557,
  " fleet": 10558,
  " brutal": 10559,
  " bands": 10560,
  "awks": 10561,
  " Hitler": 10562,
  " acceptable": 10563,
  " jer": 10564,
  " Arsenal": 10565,
  " ancest": 10566,
  "List": 10567,
  " Wright": 10568,
  " SH": 10569,
  " scar": 10570,
  "Net": 10571,
  "SU": 10572,
  " Portug": 10573,
  " Ven": 10574,
  " subscribe": 10575,
  " Move": 10576,
  " Alliance": 10577,
  " registration": 10578,
  "election": 10579,
  " Online": 10580,
  " Area": 10581,
  " promotion": 10582,
  " momentum": 10583,
  " quit": 10584,
  " struggles": 10585,
  " Leban": 10586,
  " refugee": 10587,
  " Indones": 10588,
  "too": 10589,
  " evident": 10590,
  "aro": 10591,
  " probe": 10592,
  " keyboard": 10593,
  " organisation": 10594,
  "mits": 10595,
  " wondering": 10596,
  " closest": 10597,
  "father": 10598,
  "ART": 10599,
  " teeth": 10600,
  "strong": 10601,
  " athe": 10602,
  " Following": 10603,
  " monster": 10604,
  "Fl": 10605,
  " embrace": 10606,
  "books": 10607,
  "hire": 10608,
  " assembly": 10609,
  " Steel": 10610,
  " Hamp": 10611,
  " occasional": 10612,
  "chell": 10613,
  " bankrupt": 10614,
  "isd": 10615,
  "Name": 10616,
  "Speaking": 10617,
  " Mun": 10618,
  " utter": 10619,
  " Word": 10620,
  " references": 10621,
  " pride": 10622,
  " expenses": 10623,
  " journalism": 10624,
  " guards": 10625,
  " subsequently": 10626,
  " Venezuel": 10627,
  "oker": 10628,
  "oub": 10629,
  "stop": 10630,
  " yeah": 10631,
  "grad": 10632,
  "HP": 10633,
  " districts": 10634,
  " Independent": 10635,
  " orbit": 10636,
  " removing": 10637,
  " interpretation": 10638,
  "rett": 10639,
  " Writ": 10640,
  " lin": 10641,
  "Gl": 10642,
  " profound": 10643,
  "hr": 10644,
  "ipedia": 10645,
  " Pittsburgh": 10646,
  "2012": 10647,
  " mathemat": 10648,
  " compromise": 10649,
  "\\u00ef\\u00bc": 10650,
  " survived": 10651,
  "arson": 10652,
  " Could": 10653,
  " knife": 10654,
  "QL": 10655,
  " stating": 10656,
  " exclusively": 10657,
  " engaging": 10658,
  " considerable": 10659,
  " 72": 10660,
  " dominated": 10661,
  " Source": 10662,
  " briefly": 10663,
  " Nazi": 10664,
  " refuse": 10665,
  " characteristics": 10666,
  " bird": 10667,
  " lobb": 10668,
  " justify": 10669,
  " Raj": 10670,
  " Mountain": 10671,
  " ministers": 10672,
  "bound": 10673,
  " Rest": 10674,
  " tremendous": 10675,
  " gri": 10676,
  " prost": 10677,
  " electron": 10678,
  " chip": 10679,
  "orneys": 10680,
  " contrary": 10681,
  " sustainable": 10682,
  " disappear": 10683,
  " flour": 10684,
  "Share": 10685,
  "rend": 10686,
  " routes": 10687,
  " asylum": 10688,
  " executed": 10689,
  " loaded": 10690,
  " nervous": 10691,
  "ocated": 10692,
  " pir": 10693,
  "attered": 10694,
  "utter": 10695,
  "elve": 10696,
  " sophistic": 10697,
  "Thank": 10698,
  " Everyone": 10699,
  " Aaron": 10700,
  " sexually": 10701,
  " proportion": 10702,
  "Hey": 10703,
  " Dream": 10704,
  " Andy": 10705,
  "inst": 10706,
  " Bu": 10707,
  " gameplay": 10708,
  " donors": 10709,
  " revolutionary": 10710,
  " Duke": 10711,
  " confusion": 10712,
  "cap": 10713,
  "KE": 10714,
  " Pant": 10715,
  "amine": 10716,
  " curious": 10717,
  " attending": 10718,
  " harsh": 10719,
  "UC": 10720,
  "limited": 10721,
  "immer": 10722,
  "lihood": 10723,
  " speakers": 10724,
  " Adams": 10725,
  " cabinet": 10726,
  " 800": 10727,
  " Treasury": 10728,
  "\u00e8": 10729,
  "income": 10730,
  " IM": 10731,
  " printed": 10732,
  " nowhere": 10733,
  " charging": 10734,
  " chronic": 10735,
  "reek": 10736,
  " flee": 10737,
  " brands": 10738,
  "Ag": 10739,
  " engines": 10740,
  "security": 10741,
  " Mult": 10742,
  " Short": 10743,
  " Aren": 10744,
  " physics": 10745,
  "function": 10746,
  "inge": 10747,
  "urse": 10748,
  " Having": 10749,
  " Tesla": 10750,
  " void": 10751,
  " outcomes": 10752,
  "scar": 10753,
  "\u00f3n": 10754,
  "anim": 10755,
  "reck": 10756,
  " Officer": 10757,
  "otte": 10758,
  "MAN": 10759,
  " Sheriff": 10760,
  " concert": 10761,
  "olid": 10762,
  "ublished": 10763,
  "thood": 10764,
  " mirror": 10765,
  "Red": 10766,
  " orient": 10767,
  " spo": 10768,
  " obser": 10769,
  " strengthen": 10770,
  "opt": 10771,
  " Spir": 10772,
  " Gib": 10773,
  " passenger": 10774,
  " fails": 10775,
  " chaos": 10776,
  " criminals": 10777,
  " fel": 10778,
  " iPad": 10779,
  " Jun": 10780,
  " Current": 10781,
  ".]": 10782,
  "700": 10783,
  "white": 10784,
  " CON": 10785,
  " steady": 10786,
  "merce": 10787,
  " Nether": 10788,
  " Robinson": 10789,
  " Manhattan": 10790,
  " Change": 10791,
  " endors": 10792,
  "IE": 10793,
  " robust": 10794,
  " Perry": 10795,
  " speculation": 10796,
  " Norm": 10797,
  "reshold": 10798,
  " dropping": 10799,
  " Alp": 10800,
  " deemed": 10801,
  " integrated": 10802,
  " Taliban": 10803,
  " hiring": 10804,
  " certific": 10805,
  " Giants": 10806,
  "apper": 10807,
  " FA": 10808,
  " Ts": 10809,
  " avo": 10810,
  " epic": 10811,
  " guaranteed": 10812,
  " Band": 10813,
  "mble": 10814,
  " presents": 10815,
  " leaked": 10816,
  " Kings": 10817,
  " Singapore": 10818,
  " packages": 10819,
  " checking": 10820,
  " packed": 10821,
  "BN": 10822,
  " fert": 10823,
  "ele": 10824,
  " challenged": 10825,
  " \u00b1": 10826,
  " bits": 10827,
  " pleasure": 10828,
  " vit": 10829,
  " suspension": 10830,
  " Opp": 10831,
  " USB": 10832,
  "good": 10833,
  " engagement": 10834,
  " da": 10835,
  "leep": 10836,
  "\u0101": 10837,
  " Tel": 10838,
  "Pal": 10839,
  " radiation": 10840,
  " bombing": 10841,
  " slot": 10842,
  " Craig": 10843,
  "istle": 10844,
  " patri": 10845,
  " alert": 10846,
  " Hu": 10847,
  " produces": 10848,
  " hunting": 10849,
  " wet": 10850,
  " witnesses": 10851,
  "riv": 10852,
  " editorial": 10853,
  " 59": 10854,
  " defended": 10855,
  " Holy": 10856,
  " developments": 10857,
  " attracted": 10858,
  "rics": 10859,
  " recovered": 10860,
  " 66": 10861,
  " Log": 10862,
  " blocking": 10863,
  "ophob": 10864,
  "mented": 10865,
  " boom": 10866,
  " simultaneously": 10867,
  " Later": 10868,
  "Right": 10869,
  " Hung": 10870,
  " bacteria": 10871,
  " researcher": 10872,
  " Jeremy": 10873,
  " figured": 10874,
  " Lincoln": 10875,
  " alliance": 10876,
  " taxpayers": 10877,
  " caps": 10878,
  " Les": 10879,
  " Entertainment": 10880,
  "\\u00e0\\u00b8": 10881,
  " cinem": 10882,
  " correl": 10883,
  "card": 10884,
  "izarre": 10885,
  " None": 10886,
  " Future": 10887,
  " hosts": 10888,
  " oxy": 10889,
  "--------------------------------": 10890,
  " examine": 10891,
  " Russians": 10892,
  " Poland": 10893,
  " patent": 10894,
  " junior": 10895,
  "ATCH": 10896,
  "ifier": 10897,
  " embed": 10898,
  "uter": 10899,
  "ateful": 10900,
  "aste": 10901,
  " Dak": 10902,
  "oned": 10903,
  " Vlad": 10904,
  " Tower": 10905,
  "\u00c3\u00c2\u00c3\u00c2\u00c3\u00c2\u00c3\u00c2": 10906,
  " 62": 10907,
  " Chairman": 10908,
  "lynn": 10909,
  " variables": 10910,
  " Gh": 10911,
  "Black": 10912,
  " publish": 10913,
  " meth": 10914,
  " tear": 10915,
  " breast": 10916,
  "JP": 10917,
  " Ukrainian": 10918,
  "DR": 10919,
  " enact": 10920,
  "gly": 10921,
  "omic": 10922,
  " flights": 10923,
  "adesh": 10924,
  "Car": 10925,
  " vent": 10926,
  " Studies": 10927,
  "gged": 10928,
  "dep": 10929,
  "may": 10930,
  " Bor": 10931,
  " Wi": 10932,
  "aco": 10933,
  " distribut": 10934,
  " surprisingly": 10935,
  " flav": 10936,
  " accuracy": 10937,
  " ric": 10938,
  " los": 10939,
  " impacts": 10940,
  " raises": 10941,
  " solo": 10942,
  " Kit": 10943,
  " burned": 10944,
  " Would": 10945,
  " angle": 10946,
  " Sci": 10947,
  "imir": 10948,
  " qualified": 10949,
  " evac": 10950,
  "olitical": 10951,
  " CPU": 10952,
  " flavor": 10953,
  " decrease": 10954,
  " Ub": 10955,
  "secutive": 10956,
  "oft": 10957,
  "vas": 10958,
  " courtesy": 10959,
  " evolved": 10960,
  " intimid": 10961,
  "wich": 10962,
  "test": 10963,
  " fingers": 10964,
  " OR": 10965,
  "nie": 10966,
  " assemb": 10967,
  " dependent": 10968,
  " MPs": 10969,
  " unnecess": 10970,
  " lane": 10971,
  "ERE": 10972,
  " voc": 10973,
  " productive": 10974,
  "rition": 10975,
  "Cor": 10976,
  " expecting": 10977,
  " Rangers": 10978,
  "terror": 10979,
  " visits": 10980,
  " Total": 10981,
  " expects": 10982,
  " transferred": 10983,
  "dict": 10984,
  "ishers": 10985,
  " shops": 10986,
  "etheless": 10987,
  " CC": 10988,
  " Griff": 10989,
  " ignor": 10990,
  " Gill": 10991,
  " blamed": 10992,
  " enabled": 10993,
  " killer": 10994,
  "Br": 10995,
  " motivated": 10996,
  " identical": 10997,
  " Stewart": 10998,
  " departure": 10999,
  " HIV": 11000,
  " accord": 11001,
  "bin": 11002,
  " barg": 11003,
  " venture": 11004,
  " Command": 11005,
  " Mississ": 11006,
  "Book": 11007,
  "iere": 11008,
  "nan": 11009,
  " Du": 11010,
  " repeal": 11011,
  " BC": 11012,
  "iden": 11013,
  " restore": 11014,
  " scared": 11015,
  "TO": 11016,
  " agreements": 11017,
  " organis": 11018,
  "ulse": 11019,
  " forgotten": 11020,
  " Edition": 11021,
  " Ni": 11022,
  "thodox": 11023,
  "icked": 11024,
  " Should": 11025,
  " trailer": 11026,
  "ernand": 11027,
  " inher": 11028,
  " Think": 11029,
  " conflicts": 11030,
  " occupied": 11031,
  " backs": 11032,
  " Things": 11033,
  " influenced": 11034,
  " telephone": 11035,
  " ranking": 11036,
  " criteria": 11037,
  "bian": 11038,
  " nationwide": 11039,
  "ahoo": 11040,
  " Reddit": 11041,
  " cycl": 11042,
  " occasion": 11043,
  " animation": 11044,
  " concentration": 11045,
  " checked": 11046,
  "about": 11047,
  " functionality": 11048,
  " promoted": 11049,
  " Model": 11050,
  " reass": 11051,
  " Support": 11052,
  " Place": 11053,
  " Pope": 11054,
  " analys": 11055,
  "unity": 11056,
  "ressing": 11057,
  "df": 11058,
  " Product": 11059,
  "onduct": 11060,
  " households": 11061,
  " algorithm": 11062,
  "rah": 11063,
  "iar": 11064,
  "ILL": 11065,
  "looking": 11066,
  " imprison": 11067,
  " Hug": 11068,
  " courage": 11069,
  "aments": 11070,
  " Eb": 11071,
  " `": 11072,
  " desp": 11073,
  " Warner": 11074,
  " explicitly": 11075,
  " batter": 11076,
  " releasing": 11077,
  "oup": 11078,
  "leted": 11079,
  " babies": 11080,
  "link": 11081,
  "Former": 11082,
  "uating": 11083,
  " subtle": 11084,
  " tanks": 11085,
  " ought": 11086,
  " strip": 11087,
  " bases": 11088,
  " stats": 11089,
  "rike": 11090,
  " Ent": 11091,
  " static": 11092,
  "large": 11093,
  " doct": 11094,
  "ippi": 11095,
  "agine": 11096,
  "MB": 11097,
  " antib": 11098,
  " privilege": 11099,
  "Gr": 11100,
  " meters": 11101,
  " Jerry": 11102,
  " Moreover": 11103,
  " NO": 11104,
  " entrance": 11105,
  " senators": 11106,
  " tower": 11107,
  " investigated": 11108,
  " Canadians": 11109,
  "bat": 11110,
  "Three": 11111,
  " hub": 11112,
  " overl": 11113,
  " Egyptian": 11114,
  "zone": 11115,
  " wise": 11116,
  " Standard": 11117,
  " Cold": 11118,
  " applies": 11119,
  "ollar": 11120,
  " Christopher": 11121,
  "\",\"": 11122,
  " formula": 11123,
  "breaking": 11124,
  " painting": 11125,
  " Map": 11126,
  " provider": 11127,
  " destination": 11128,
  " unre": 11129,
  " continu": 11130,
  " ally": 11131,
  " lens": 11132,
  " modest": 11133,
  " mart": 11134,
  " inevitable": 11135,
  " Queens": 11136,
  " 63": 11137,
  " influential": 11138,
  " uncertainty": 11139,
  " jet": 11140,
  "forward": 11141,
  "leading": 11142,
  "izations": 11143,
  "actor": 11144,
  "kes": 11145,
  "being": 11146,
  "Supp": 11147,
  " solely": 11148,
  " dimin": 11149,
  " inaug": 11150,
  " Marg": 11151,
  " Ottawa": 11152,
  "Yeah": 11153,
  "Good": 11154,
  " belt": 11155,
  " chips": 11156,
  "uccess": 11157,
  " theft": 11158,
  " Niger": 11159,
  " infection": 11160,
  " politician": 11161,
  " screw": 11162,
  " TR": 11163,
  " transparency": 11164,
  " insist": 11165,
  "rying": 11166,
  " singer": 11167,
  " Univers": 11168,
  " Alaska": 11169,
  " invested": 11170,
  " Stock": 11171,
  " Olympics": 11172,
  "untu": 11173,
  " immune": 11174,
  " provisions": 11175,
  "istance": 11176,
  "ardo": 11177,
  " Oil": 11178,
  " Louisiana": 11179,
  " handled": 11180,
  "SD": 11181,
  " impressed": 11182,
  " py": 11183,
  "town": 11184,
  " PlayStation": 11185,
  " uncomfort": 11186,
  "overs": 11187,
  "ampa": 11188,
  " inbox": 11189,
  " balls": 11190,
  "Em": 11191,
  " Jane": 11192,
  " operator": 11193,
  " Netherlands": 11194,
  "ante": 11195,
  " bol": 11196,
  "non": 11197,
  " Trek": 11198,
  "offs": 11199,
  "ilation": 11200,
  " tent": 11201,
  " lifestyle": 11202,
  " similarly": 11203,
  "rifice": 11204,
  " headlines": 11205,
  " boards": 11206,
  "comp": 11207,
  " colleg": 11208,
  "idal": 11209,
  "thur": 11210,
  " operated": 11211,
  " Stanley": 11212,
  " disabled": 11213,
  "?)": 11214,
  " gym": 11215,
  " Kr": 11216,
  " regarded": 11217,
  "olas": 11218,
  "Down": 11219,
  " launching": 11220,
  " Drug": 11221,
  " Exp": 11222,
  "ixel": 11223,
  " reluct": 11224,
  " photographs": 11225,
  " detention": 11226,
  " Type": 11227,
  " volunt": 11228,
  "million": 11229,
  "Obama": 11230,
  "var": 11231,
  " Mother": 11232,
  "achment": 11233,
  "?\u2019": 11234,
  " sake": 11235,
  " SN": 11236,
  " kidn": 11237,
  " keen": 11238,
  "such": 11239,
  "citation": 11240,
  "wall": 11241,
[...]
